{
  "version": "1.0",
  "truncation": null,
  "padding": null,
  "added_tokens": [
    {
      "id": 0,
      "content": "[UNK]",
      "single_word": false,
      "lstrip": false,
      "rstrip": false,
      "normalized": false,
      "special": true
    },
    {
      "id": 1,
      "content": "[CLS]",
      "single_word": false,
      "lstrip": false,
      "rstrip": false,
      "normalized": false,
      "special": true
    },
    {
      "id": 2,
      "content": "[SEP]",
      "single_word": false,
      "lstrip": false,
      "rstrip": false,
      "normalized": false,
      "special": true
    },
    {
      "id": 3,
      "content": "[PAD]",
      "single_word": false,
      "lstrip": false,
      "rstrip": false,
      "normalized": false,
      "special": true
    },
    {
      "id": 4,
      "content": "[MASK]",
      "single_word": false,
      "lstrip": false,
      "rstrip": false,
      "normalized": false,
      "special": true
    }
  ],
  "normalizer": {
    "type": "Sequence",
    "normalizers": [
      {
        "type": "NFD"
      },
      {
        "type": "Lowercase"
      },
      {
        "type": "StripAccents"
      }
    ]
  },
  "pre_tokenizer": {
    "type": "ByteLevel",
    "add_prefix_space": true,
    "trim_offsets": true,
    "use_regex": true
  },
  "post_processor": null,
  "decoder": null,
  "model": {
    "type": "WordPiece",
    "unk_token": "[UNK]",
    "continuing_subword_prefix": "##",
    "max_input_chars_per_word": 100,
    "vocab": {
      "[UNK]": 0,
      "[CLS]": 1,
      "[SEP]": 2,
      "[PAD]": 3,
      "[MASK]": 4,
      "!": 5,
      "\"": 6,
      "#": 7,
      "$": 8,
      "%": 9,
      "&": 10,
      "'": 11,
      "(": 12,
      ")": 13,
      "*": 14,
      "+": 15,
      ",": 16,
      "-": 17,
      ".": 18,
      "/": 19,
      "0": 20,
      "1": 21,
      "2": 22,
      "3": 23,
      "4": 24,
      "5": 25,
      "6": 26,
      "7": 27,
      "8": 28,
      "9": 29,
      ":": 30,
      ";": 31,
      "<": 32,
      "=": 33,
      ">": 34,
      "?": 35,
      "@": 36,
      "[": 37,
      "\\": 38,
      "]": 39,
      "^": 40,
      "_": 41,
      "`": 42,
      "a": 43,
      "b": 44,
      "c": 45,
      "d": 46,
      "e": 47,
      "f": 48,
      "g": 49,
      "h": 50,
      "i": 51,
      "j": 52,
      "k": 53,
      "l": 54,
      "m": 55,
      "n": 56,
      "o": 57,
      "p": 58,
      "q": 59,
      "r": 60,
      "s": 61,
      "t": 62,
      "u": 63,
      "v": 64,
      "w": 65,
      "x": 66,
      "y": 67,
      "z": 68,
      "{": 69,
      "|": 70,
      "}": 71,
      "~": 72,
      "¡": 73,
      "¢": 74,
      "£": 75,
      "¤": 76,
      "¥": 77,
      "¦": 78,
      "§": 79,
      "¨": 80,
      "©": 81,
      "ª": 82,
      "«": 83,
      "¬": 84,
      "®": 85,
      "¯": 86,
      "°": 87,
      "±": 88,
      "²": 89,
      "³": 90,
      "´": 91,
      "µ": 92,
      "¶": 93,
      "·": 94,
      "¸": 95,
      "¹": 96,
      "º": 97,
      "»": 98,
      "¼": 99,
      "½": 100,
      "¾": 101,
      "¿": 102,
      "Â": 103,
      "Ã": 104,
      "Ä": 105,
      "Å": 106,
      "É": 107,
      "Ê": 108,
      "Ë": 109,
      "Î": 110,
      "Ï": 111,
      "Ð": 112,
      "Ñ": 113,
      "Ø": 114,
      "Ù": 115,
      "Û": 116,
      "â": 117,
      "î": 118,
      "ï": 119,
      "ð": 120,
      "ĉ": 121,
      "Ċ": 122,
      "Ġ": 123,
      "Ģ": 124,
      "ģ": 125,
      "Ĥ": 126,
      "ĥ": 127,
      "Ħ": 128,
      "ħ": 129,
      "Ĩ": 130,
      "ĩ": 131,
      "Ī": 132,
      "ī": 133,
      "Ĭ": 134,
      "Į": 135,
      "İ": 136,
      "Ĳ": 137,
      "ĳ": 138,
      "Ĵ": 139,
      "ĵ": 140,
      "Ķ": 141,
      "ķ": 142,
      "ĸ": 143,
      "Ĺ": 144,
      "ĺ": 145,
      "Ļ": 146,
      "ļ": 147,
      "Ľ": 148,
      "ľ": 149,
      "Ŀ": 150,
      "ŀ": 151,
      "Ł": 152,
      "ł": 153,
      "Ń": 154,
      "##o": 155,
      "##s": 156,
      "##t": 157,
      "##e": 158,
      "##p": 159,
      "##h": 160,
      "##y": 161,
      "##u": 162,
      "##r": 163,
      "##l": 164,
      "##i": 165,
      "##c": 166,
      "##a": 167,
      "##d": 168,
      "##m": 169,
      "##b": 170,
      "##n": 171,
      "##f": 172,
      "##q": 173,
      "##v": 174,
      "##2": 175,
      "##1": 176,
      "##3": 177,
      "##0": 178,
      "##8": 179,
      "##6": 180,
      "##4": 181,
      "##7": 182,
      "##g": 183,
      "##k": 184,
      "##!": 185,
      "##}": 186,
      "##Â": 187,
      "##»": 188,
      "##w": 189,
      "##x": 190,
      "##j": 191,
      "##z": 192,
      "##5": 193,
      "##9": 194,
      "##-": 195,
      "##/": 196,
      "##;": 197,
      "##·": 198,
      "##)": 199,
      "##,": 200,
      "##Ŀ": 201,
      "##¥": 202,
      "##ï": 203,
      "##¢": 204,
      "##³": 205,
      "##´": 206,
      "##²": 207,
      "##¬": 208,
      "##ģ": 209,
      "##.": 210,
      "##Ù": 211,
      "##Ħ": 212,
      "##Ø": 213,
      "##¨": 214,
      "##Û": 215,
      "##Į": 216,
      "##â": 217,
      "##Ģ": 218,
      "##ľ": 219,
      "##?": 220,
      "##Ĥ": 221,
      "##'": 222,
      "##Ã": 223,
      "##¦": 224,
      "##=": 225,
      "##ĥ": 226,
      "##\\": 227,
      "##%": 228,
      "##~": 229,
      "##Å": 230,
      "##¿": 231,
      "##+": 232,
      "##:": 233,
      "##Ë": 234,
      "##Ĩ": 235,
      "##_": 236,
      "##ĸ": 237,
      "##ł": 238,
      "##«": 239,
      "##Î": 240,
      "##±": 241,
      "##¡": 242,
      "##µ": 243,
      "##°": 244,
      "##©": 245,
      "##<": 246,
      "##]": 247,
      "##¶": 248,
      "##ĺ": 249,
      "##®": 250,
      "##(": 251,
      "##º": 252,
      "##¤": 253,
      "##½": 254,
      "##ĉ": 255,
      "##Ġ": 256,
      "##¯": 257,
      "##>": 258,
      "##\"": 259,
      "##£": 260,
      "##Ń": 261,
      "##ŀ": 262,
      "##Ċ": 263,
      "##Ķ": 264,
      "##*": 265,
      "###": 266,
      "##î": 267,
      "##¾": 268,
      "##Ī": 269,
      "##Ĵ": 270,
      "##|": 271,
      "##^": 272,
      "##Ä": 273,
      "##¼": 274,
      "##&": 275,
      "##¹": 276,
      "##`": 277,
      "##Ļ": 278,
      "##ĵ": 279,
      "##Ĺ": 280,
      "##§": 281,
      "##{": 282,
      "##ª": 283,
      "##ħ": 284,
      "##Ñ": 285,
      "##[": 286,
      "##Ï": 287,
      "##ķ": 288,
      "##$": 289,
      "##Ł": 290,
      "##@": 291,
      "##ī": 292,
      "##ĩ": 293,
      "##ð": 294,
      "##Ľ": 295,
      "##¸": 296,
      "##Ĭ": 297,
      "##Ê": 298,
      "##ļ": 299,
      "##Ð": 300,
      "##Ĳ": 301,
      "##İ": 302,
      "##ĳ": 303,
      "Ġt": 304,
      "Ġa": 305,
      "##he": 306,
      "##in": 307,
      "##er": 308,
      "##on": 309,
      "Ġthe": 310,
      "##re": 311,
      "Ġo": 312,
      "Ġs": 313,
      "##at": 314,
      "##en": 315,
      "Ġc": 316,
      "##al": 317,
      "Ġp": 318,
      "Ġof": 319,
      "Ġin": 320,
      "##ed": 321,
      "##es": 322,
      "##is": 323,
      "Ġm": 324,
      "##nd": 325,
      "##ion": 326,
      "##it": 327,
      "Ġw": 328,
      "Ġb": 329,
      "##or": 330,
      "##ro": 331,
      "Ġf": 332,
      "Ġd": 333,
      "##ic": 334,
      "Ġn": 335,
      "ĠĠ": 336,
      "##ar": 337,
      "##an": 338,
      "Ġand": 339,
      "##as": 340,
      "Ġe": 341,
      "Ġre": 342,
      "##ent": 343,
      "##ct": 344,
      "Ġl": 345,
      "##el": 346,
      "##ing": 347,
      "##us": 348,
      "##ur": 349,
      "Ġg": 350,
      "Ġh": 351,
      "##ul": 352,
      "Ġto": 353,
      "Ġth": 354,
      "##le": 355,
      "##ve": 356,
      "##ation": 357,
      "##ly": 358,
      "##om": 359,
      "##os": 360,
      "##ra": 361,
      "##im": 362,
      "Ġ1": 363,
      "Ġ(": 364,
      "##ot": 365,
      "##ut": 366,
      "##ol": 367,
      "##ig": 368,
      "Ġbe": 369,
      "##ter": 370,
      "##id": 371,
      "##il": 372,
      "##ce": 373,
      "Ġis": 374,
      "Ġne": 375,
      "Ġv": 376,
      "##ch": 377,
      "Ġcon": 378,
      "##un": 379,
      "##ell": 380,
      "Ġan": 381,
      "Ġex": 382,
      "Ġde": 383,
      "##ow": 384,
      "##st": 385,
      "Ġst": 386,
      "##res": 387,
      "##ith": 388,
      "##ect": 389,
      "Ġal": 390,
      "##ib": 391,
      "Ġpro": 392,
      "Ġon": 393,
      "##am": 394,
      "Ġwith": 395,
      "##um": 396,
      "Ġner": 397,
      "Ġfor": 398,
      "Ġ2": 399,
      "##if": 400,
      "Ġas": 401,
      "Ġr": 402,
      "##ay": 403,
      "Ġthat": 404,
      "##ir": 405,
      "Ġwh": 406,
      "the": 407,
      "##iv": 408,
      "##em": 409,
      "##her": 410,
      "##th": 411,
      ".,": 412,
      "Ġby": 413,
      "##pt": 414,
      "##od": 415,
      "##se": 416,
      "Ġor": 417,
      "Ġsp": 418,
      "Ġsu": 419,
      "Ġwas": 420,
      "Ġj": 421,
      "##ated": 422,
      "Ġare": 423,
      "Ġcell": 424,
      "##ver": 425,
      "##ich": 426,
      "##ag": 427,
      "##ad": 428,
      "Ġit": 429,
      "##gen": 430,
      "##ere": 431,
      "Ġat": 432,
      "##ph": 433,
      "##ain": 434,
      "##rom": 435,
      "Ġse": 436,
      "##ab": 437,
      "##ci": 438,
      "##pp": 439,
      "##inal": 440,
      "##ous": 441,
      "##ure": 442,
      "##ive": 443,
      "##ess": 444,
      "##ate": 445,
      "##et": 446,
      "##ist": 447,
      "ĠĠĠ": 448,
      "##ment": 449,
      "##ical": 450,
      "##ac": 451,
      "Ġch": 452,
      "##og": 453,
      "##act": 454,
      "Ġhe": 455,
      "Ġwhich": 456,
      "Ġ19": 457,
      "Ġnerve": 458,
      "##ran": 459,
      "##und": 460,
      "##ort": 461,
      "##est": 462,
      "##ity": 463,
      "Ġk": 464,
      "##qu": 465,
      "Ġfrom": 466,
      "##op": 467,
      "##ions": 468,
      "Ġcom": 469,
      "Ġper": 470,
      "Ġax": 471,
      "##end": 472,
      "##ord": 473,
      "##per": 474,
      "Ġthis": 475,
      "##ia": 476,
      "##ore": 477,
      "##ons": 478,
      "Ġnot": 479,
      "ÂŃ": 480,
      "##ult": 481,
      "Ġsh": 482,
      "Ġwere": 483,
      "Ġaf": 484,
      "##oc": 485,
      "##gener": 486,
      ").": 487,
      "##ial": 488,
      "Ġsy": 489,
      "##ant": 490,
      "##ang": 491,
      "##igh": 492,
      "##ers": 493,
      "Ġpar": 494,
      "Ġcells": 495,
      "Ġ3": 496,
      "Ġres": 497,
      "##ase": 498,
      "Ġha": 499,
      "âĢ": 500,
      "##ies": 501,
      "Ġim": 502,
      "##te": 503,
      "##uc": 504,
      "##uro": 505,
      "Ġneur": 506,
      "##ud": 507,
      "##row": 508,
      "##00": 509,
      "##ug": 510,
      "##fer": 511,
      "Ġad": 512,
      "Ġdis": 513,
      "##ill": 514,
      "##ence": 515,
      "Ġint": 516,
      "of": 517,
      "##cc": 518,
      "##ress": 519,
      "Ġle": 520,
      "##ction": 521,
      "Ġneuro": 522,
      "##ens": 523,
      "##ine": 524,
      "Ġwe": 525,
      "##ys": 526,
      "##ther": 527,
      "##ular": 528,
      "##ary": 529,
      "in": 530,
      "##ip": 531,
      "Ġafter": 532,
      "Ġcont": 533,
      "##ight": 534,
      "Ġinj": 535,
      "##up": 536,
      "Ġab": 537,
      "ĉĉ": 538,
      "##ie": 539,
      "##our": 540,
      "Ġnerv": 541,
      "##ory": 542,
      "##cl": 543,
      "Ġfib": 544,
      "##ub": 545,
      "Ġ4": 546,
      "##so": 547,
      "Ġet": 548,
      "##iz": 549,
      "##ases": 550,
      "Ġcomp": 551,
      "Ġun": 552,
      "Ġpat": 553,
      "##ost": 554,
      "##fect": 555,
      "and": 556,
      "Ġi": 557,
      "Ġregener": 558,
      "##ong": 559,
      "Ġy": 560,
      "Ġspinal": 561,
      "##all": 562,
      "##ue": 563,
      "##ely": 564,
      "##ugh": 565,
      "Ġcord": 566,
      "##ome": 567,
      "##ap": 568,
      "Ġmay": 569,
      "Ġexp": 570,
      "##ally": 571,
      "Ġhave": 572,
      "##ors": 573,
      "Ġthese": 574,
      "Ġbut": 575,
      "##hen": 576,
      "Ġme": 577,
      "Ġapp": 578,
      "Ġro": 579,
      "##orm": 580,
      "##ater": 581,
      "Ġus": 582,
      "##âĢ": 583,
      "Ġ.": 584,
      "##rans": 585,
      "âĢĵ": 586,
      "##ak": 587,
      "##ance": 588,
      "Ġret": 589,
      "##olog": 590,
      "##ite": 591,
      "Ġthere": 592,
      "##ast": 593,
      "##ral": 594,
      "##iss": 595,
      "##erv": 596,
      "Ġob": 597,
      "Ġno": 598,
      "##oul": 599,
      "##rowth": 600,
      "##ard": 601,
      "##..": 602,
      "##vel": 603,
      "Ġpl": 604,
      "##ient": 605,
      "Ġ5": 606,
      "Ġtrans": 607,
      "##ould": 608,
      "##ition": 609,
      "##ge": 610,
      "Ġar": 611,
      "##oll": 612,
      "Ġdif": 613,
      "##able": 614,
      "##age": 615,
      "Ġrec": 616,
      "Ġshow": 617,
      "##ear": 618,
      "Ġbeen": 619,
      "Ġpre": 620,
      "##ations": 621,
      "Ġhas": 622,
      "##rain": 623,
      "Ġgen": 624,
      "##ĠĠ": 625,
      "Ġmed": 626,
      "##ond": 627,
      "##ior": 628,
      "Ġdi": 629,
      "Ġra": 630,
      "##ptic": 631,
      "Ġph": 632,
      "##ury": 633,
      "##are": 634,
      "##ind": 635,
      "##ide": 636,
      "19": 637,
      "Ġpos": 638,
      "Ġpart": 639,
      "Ġone": 640,
      "Ġmus": 641,
      "Ġ,": 642,
      "Ġother": 643,
      "Ġimp": 644,
      "Ġcl": 645,
      "##yel": 646,
      "Ġind": 647,
      "Ġrep": 648,
      "Ġreg": 649,
      "Ġinter": 650,
      "##ound": 651,
      "Ġaxon": 652,
      "##ber": 653,
      "Ġcent": 654,
      "Ġsub": 655,
      "##ns": 656,
      "Ġext": 657,
      "##reat": 658,
      "##ose": 659,
      "Ġ199": 660,
      "##ri": 661,
      "Ġtw": 662,
      "Ġmore": 663,
      "##cre": 664,
      "Ġall": 665,
      "##and": 666,
      "th": 667,
      "Ġregeneration": 668,
      "Ġpres": 669,
      "Ġform": 670,
      "Ġsur": 671,
      "Ġgrowth": 672,
      "Ġles": 673,
      "Ġaxons": 674,
      "Ġinjury": 675,
      "Ġcases": 676,
      "Ġcan": 677,
      "Ġgl": 678,
      "Ġinto": 679,
      "Ġsome": 680,
      "##ft": 681,
      "##pe": 682,
      "Ġdist": 683,
      "Ġdiffer": 684,
      "##out": 685,
      "Ġver": 686,
      "##yt": 687,
      "##stem": 688,
      "##ection": 689,
      "##ract": 690,
      "Ġen": 691,
      "Ġact": 692,
      "Ġoptic": 693,
      "Ġca": 694,
      "),": 695,
      "Ġso": 696,
      "##roph": 697,
      "##ays": 698,
      "Ġman": 699,
      "Ġalso": 700,
      "##ass": 701,
      "Ġbl": 702,
      "Ġev": 703,
      "Ġ6": 704,
      "Ġrat": 705,
      "##ne": 706,
      "Ġbrain": 707,
      "##ach": 708,
      "##one": 709,
      "##yelin": 710,
      "##cess": 711,
      "Ġam": 712,
      "Ġqu": 713,
      "##pl": 714,
      "Ġgra": 715,
      "Ġmo": 716,
      "Ġits": 717,
      "##ry": 718,
      "Ġfact": 719,
      "##ating": 720,
      "Ġz": 721,
      "##ific": 722,
      "##als": 723,
      "Ġsc": 724,
      "##ame": 725,
      "Ġtheir": 726,
      "##tain": 727,
      "Ġac": 728,
      "##ents": 729,
      "Ġmic": 730,
      "##ath": 731,
      "Ġfun": 732,
      "Ġout": 733,
      "##ign": 734,
      "Ġef": 735,
      "##amin": 736,
      "Ġthey": 737,
      "##hes": 738,
      "##int": 739,
      "##rib": 740,
      "##ru": 741,
      "##01": 742,
      "Ġsystem": 743,
      "##velop": 744,
      "##ollow": 745,
      "##du": 746,
      "Ġhad": 747,
      "Ġco": 748,
      "Ġtwo": 749,
      "##ace": 750,
      "##angl": 751,
      "Ġresult": 752,
      "ĠâĢ": 753,
      "Ġdo": 754,
      "##ces": 755,
      "Ġrem": 756,
      "Ġmar": 757,
      "##ood": 758,
      "##ros": 759,
      "##ied": 760,
      "Ġup": 761,
      "Ġpo": 762,
      "##ile": 763,
      "##osis": 764,
      "##ative": 765,
      "Ġsym": 766,
      "Ġund": 767,
      "Ġwhen": 768,
      "Ġdes": 769,
      "Ġexpress": 770,
      "##fic": 771,
      "Ġ7": 772,
      "##een": 773,
      "##lex": 774,
      "##ks": 775,
      "Ġocc": 776,
      "Ġsch": 777,
      "##cept": 778,
      "Ġfollow": 779,
      "##nt": 780,
      "##ree": 781,
      "Ġstud": 782,
      "##rough": 783,
      "Ġnerves": 784,
      "Ġdevelop": 785,
      "Ġfig": 786,
      "##alys": 787,
      "Ġinf": 788,
      "Ġtim": 789,
      "Ġ[": 790,
      "Ġonly": 791,
      "##itis": 792,
      "Ġbet": 793,
      "Ġgangl": 794,
      "Ġnervous": 795,
      "##art": 796,
      "##ious": 797,
      "Ġexper": 798,
      "##erm": 799,
      "##ec": 800,
      "##oth": 801,
      "##ep": 802,
      "##terior": 803,
      "Ġmyelin": 804,
      "Ġcons": 805,
      "##av": 806,
      "##hed": 807,
      "##ates": 808,
      "##ereb": 809,
      "##ric": 810,
      "Ġ8": 811,
      "Ġresp": 812,
      "Ġfound": 813,
      "Ġthan": 814,
      "Ġol": 815,
      "Ġobs": 816,
      "Ġpatient": 817,
      "##ucle": 818,
      "##ins": 819,
      "Ġfe": 820,
      "Ġnum": 821,
      "Ġchang": 822,
      "Ġsci": 823,
      "Ġtiss": 824,
      "Ġacc": 825,
      "Ġdifferent": 826,
      "Ġend": 827,
      "##unt": 828,
      "Ġ200": 829,
      "Ġem": 830,
      "Ġ;": 831,
      "##over": 832,
      "Ġinv": 833,
      "Ġag": 834,
      "Ġcase": 835,
      "Ġgener": 836,
      "##ual": 837,
      "Ġpr": 838,
      "Ġeffect": 839,
      "Ġ-": 840,
      "##hib": 841,
      "Ġcor": 842,
      "Ġdise": 843,
      "Ġdur": 844,
      "Ġrel": 845,
      "Ġfunction": 846,
      "##otor": 847,
      "##ke": 848,
      "##ire": 849,
      "##alysis": 850,
      "##ough": 851,
      "Ġ0": 852,
      "fig": 853,
      "##ween": 854,
      "##ian": 855,
      "##ann": 856,
      "to": 857,
      "Ġhy": 858,
      "Ġx": 859,
      "##yl": 860,
      "Ġneurons": 861,
      "##here": 862,
      "Ġprote": 863,
      "Ġsuch": 864,
      "##ormal": 865,
      "Ġbec": 866,
      "Ġthrough": 867,
      "Ġpath": 868,
      "Ġwill": 869,
      "Ġsens": 870,
      "Ġincre": 871,
      "##ptom": 872,
      "Ġsign": 873,
      "Ġpresent": 874,
      "Ġ10": 875,
      "##roc": 876,
      "##fore": 877,
      "Ġdegener": 878,
      "##irst": 879,
      "Ġ9": 880,
      "Ġmon": 881,
      "Ġlar": 882,
      "Ġimm": 883,
      "##ism": 884,
      "##ved": 885,
      "Ġanim": 886,
      "Ġvery": 887,
      "Ġlesion": 888,
      "ĉĉĉ": 889,
      "##uch": 890,
      "##ten": 891,
      "Ġobserv": 892,
      "Ġcereb": 893,
      "##ust": 894,
      "Ġbetween": 895,
      "'s": 896,
      "##ature": 897,
      "##ipher": 898,
      "Ġfibers": 899,
      "##ures": 900,
      "Ġexperim": 901,
      "Ġfl": 902,
      "Ġey": 903,
      "##ish": 904,
      "Ġsim": 905,
      "Ġsm": 906,
      "Ġant": 907,
      "##cular": 908,
      "Ġcol": 909,
      "##ology": 910,
      "##ise": 911,
      "Ġhow": 912,
      "Ġif": 913,
      "##uced": 914,
      "Ġboth": 915,
      "##dition": 916,
      "Ġnucle": 917,
      "Ġtreat": 918,
      "Ġmost": 919,
      "##ments": 920,
      "Ġtr": 921,
      "Ġunder": 922,
      "Ġtime": 923,
      "##ull": 924,
      "Ġany": 925,
      "##ible": 926,
      "Ġsl": 927,
      "##nal": 928,
      "Ġty": 929,
      "##ility": 930,
      "##ute": 931,
      "##ix": 932,
      "Ġ18": 933,
      "Ġperipher": 934,
      "##ateral": 935,
      "##ked": 936,
      "##ized": 937,
      "##ured": 938,
      "##cul": 939,
      "##ected": 940,
      "##ever": 941,
      "##ages": 942,
      "##ological": 943,
      "##use": 944,
      "##own": 945,
      "Ġactiv": 946,
      "Ġinhib": 947,
      "##ron": 948,
      "##amm": 949,
      "Ġlong": 950,
      "Ġcentral": 951,
      "##ans": 952,
      "Ġatt": 953,
      "Ġtissue": 954,
      "##atter": 955,
      "##asm": 956,
      "##....": 957,
      "Ġfirst": 958,
      "##mon": 959,
      "##ections": 960,
      "Ġsupp": 961,
      "##ade": 962,
      "##ears": 963,
      "Ġhis": 964,
      "##ody": 965,
      "##ased": 966,
      "Ġganglion": 967,
      "Ġaxonal": 968,
      "##ym": 969,
      "##itt": 970,
      "Ġoccur": 971,
      "Ġadult": 972,
      "##oss": 973,
      "Ġgro": 974,
      "Ġneuros": 975,
      "ĠÂ": 976,
      "Ġbi": 977,
      "Ġmod": 978,
      "##tic": 979,
      "Ġexpression": 980,
      "Ġover": 981,
      "Ġduring": 982,
      "Ġloc": 983,
      "##ution": 984,
      "##soci": 985,
      "Ġsymptom": 986,
      "##atic": 987,
      "Ġshe": 988,
      "Ġele": 989,
      "##ulation": 990,
      "##sy": 991,
      "Ġsever": 992,
      "##lic": 993,
      "Ġdr": 994,
      "##ental": 995,
      "##ob": 996,
      "Ġsame": 997,
      "##rol": 998,
      "Ġprocess": 999,
      "##arly": 1000,
      "Ġcns": 1001,
      "Ġneuron": 1002,
      "re": 1003,
      "##ii": 1004,
      "##pit": 1005,
      "Ġ\"": 1006,
      "Ġperipheral": 1007,
      "Ġvar": 1008,
      "##ork": 1009,
      "Ġnormal": 1010,
      "wh": 1011,
      "##oid": 1012,
      "Ġent": 1013,
      "199": 1014,
      "##rog": 1015,
      "Ġretin": 1016,
      "##ider": 1017,
      "##ack": 1018,
      "##ex": 1019,
      "Ġsec": 1020,
      "Ġfibres": 1021,
      "Ġtra": 1022,
      "##ily": 1023,
      "Ġvis": 1024,
      "Ġdays": 1025,
      "##ail": 1026,
      "##rit": 1027,
      "##ytes": 1028,
      "Ġtreatment": 1029,
      "Ġli": 1030,
      "ex": 1031,
      "##ced": 1032,
      "Ġfollowing": 1033,
      "st": 1034,
      "Ġchanges": 1035,
      "Ġnumber": 1036,
      "Ġ:": 1037,
      "##ared": 1038,
      "as": 1039,
      "Ġwell": 1040,
      "Ġdesc": 1041,
      "Ġthose": 1042,
      "##ium": 1043,
      "Ġser": 1044,
      "##ently": 1045,
      "##emb": 1046,
      "##na": 1047,
      "ĠĠĠĠĠ": 1048,
      "Ġneurosci": 1049,
      "##cles": 1050,
      "Ġu": 1051,
      "or": 1052,
      "Ġrecover": 1053,
      "##ner": 1054,
      "##les": 1055,
      "Ġcort": 1056,
      "##med": 1057,
      "##ower": 1058,
      "Ġdisease": 1059,
      "Ġvit": 1060,
      "Ġmeth": 1061,
      "Ġretinal": 1062,
      "##gan": 1063,
      "Ġmotor": 1064,
      "Ġ12": 1065,
      "Ġphys": 1066,
      "##ward": 1067,
      "Ġeye": 1068,
      "Ġhowever": 1069,
      "Ġdep": 1070,
      "Ġwho": 1071,
      "Ġsmall": 1072,
      "is": 1073,
      "##gest": 1074,
      "Ġ201": 1075,
      "Ġschw": 1076,
      "Ġgroup": 1077,
      "Ġoper": 1078,
      "##hem": 1079,
      "Ġposs": 1080,
      "Ġinfl": 1081,
      "##cs": 1082,
      "##ness": 1083,
      "Ġcomple": 1084,
      "Ġtion": 1085,
      "Ġmany": 1086,
      "Ġlim": 1087,
      "Ġdevelopment": 1088,
      "Ġresults": 1089,
      "##ick": 1090,
      "Ġside": 1091,
      "Ġ11": 1092,
      "Ġdire": 1093,
      "##els": 1094,
      "Ġel": 1095,
      "Ġ191": 1096,
      "##ple": 1097,
      "Ġsecond": 1098,
      "Ġinhibit": 1099,
      "Ġnew": 1100,
      "Ġkn": 1101,
      "##ruct": 1102,
      "Ġprom": 1103,
      "##air": 1104,
      "Ġright": 1105,
      "Ġpoint": 1106,
      "##ertain": 1107,
      "##ained": 1108,
      "##ived": 1109,
      "##str": 1110,
      "Ġ198": 1111,
      "Ġdegeneration": 1112,
      "Ġma": 1113,
      "Ġprev": 1114,
      "Ġeach": 1115,
      "Ġsymptoms": 1116,
      "Ġwhere": 1117,
      "Ġmade": 1118,
      "##old": 1119,
      "Ġmethod": 1120,
      "Ġaut": 1121,
      "Ġwould": 1122,
      "Ġcontrol": 1123,
      "Ġchar": 1124,
      "Ġir": 1125,
      "Ġhem": 1126,
      "##par": 1127,
      "##ger": 1128,
      "##atory": 1129,
      "Ġanimals": 1130,
      "con": 1131,
      "Ġder": 1132,
      "Ġgeneral": 1133,
      "##ful": 1134,
      "Ġast": 1135,
      "##ually": 1136,
      "11": 1137,
      "Ġvol": 1138,
      "Ġparalysis": 1139,
      "##ening": 1140,
      "Ġinc": 1141,
      "Ġupon": 1142,
      "Â·": 1143,
      "Ġtak": 1144,
      "Ġref": 1145,
      "Ġer": 1146,
      "##cle": 1147,
      "##clud": 1148,
      "##ically": 1149,
      "Ġcould": 1150,
      "##ively": 1151,
      "an": 1152,
      "##iew": 1153,
      "Ġused": 1154,
      "Ġbr": 1155,
      "Ġstr": 1156,
      "Ġevid": 1157,
      "Ġaffect": 1158,
      "Ġstim": 1159,
      "Ġreact": 1160,
      "Ġshould": 1161,
      "Ġdel": 1162,
      "Ġ)": 1163,
      "##ogen": 1164,
      "##ata": 1165,
      "Ġwithin": 1166,
      "##fin": 1167,
      "Ġ15": 1168,
      "##acter": 1169,
      "##cial": 1170,
      "10": 1171,
      "Ġblood": 1172,
      "##ings": 1173,
      "Ġprob": 1174,
      "Ġconn": 1175,
      "Ġdors": 1176,
      "Ġthen": 1177,
      "##gf": 1178,
      "Ġrecovery": 1179,
      "Ġ20": 1180,
      "Ġimmun": 1181,
      "Ġwee": 1182,
      "Ġsug": 1183,
      "Ġconsider": 1184,
      "Ġseen": 1185,
      "Ġgiv": 1186,
      "Ġthree": 1187,
      "##ung": 1188,
      "Ġop": 1189,
      "##ov": 1190,
      "##ross": 1191,
      "##ï¬": 1192,
      "##sociated": 1193,
      "##ably": 1194,
      "Ġins": 1195,
      "##ok": 1196,
      "##ted": 1197,
      "Ġspe": 1198,
      "##pinal": 1199,
      "Ġleft": 1200,
      "##uid": 1201,
      "##ject": 1202,
      "##ild": 1203,
      "##ane": 1204,
      "##ren": 1205,
      "Ġport": 1206,
      "##itive": 1207,
      "Ġabout": 1208,
      "##cy": 1209,
      "Ġstudy": 1210,
      "Ġshown": 1211,
      "##ove": 1212,
      "Ġlevel": 1213,
      "Ġbody": 1214,
      "Ġ14": 1215,
      "Ġreport": 1216,
      "##ances": 1217,
      "Ġsimil": 1218,
      "Ġcar": 1219,
      "Ġtract": 1220,
      "Ġpost": 1221,
      "Ġindic": 1222,
      "##li": 1223,
      "Ġmuscles": 1224,
      "##red": 1225,
      "##rocytes": 1226,
      "Ġterm": 1227,
      "Ġbeing": 1228,
      "Ġmac": 1229,
      "Ġobserved": 1230,
      "##plant": 1231,
      "Ġexamin": 1232,
      "Ġla": 1233,
      "##ization": 1234,
      "Ġretina": 1235,
      "de": 1236,
      "Ġmin": 1237,
      "Ġfactor": 1238,
      "Ġlarge": 1239,
      "##form": 1240,
      "Ġass": 1241,
      "Ġneurol": 1242,
      "Ġfur": 1243,
      "##ram": 1244,
      "##sych": 1245,
      "Ġabs": 1246,
      "##ount": 1247,
      "Ġdisc": 1248,
      "##oh": 1249,
      "##ration": 1250,
      "Ġimport": 1251,
      "with": 1252,
      "Ġrg": 1253,
      "are": 1254,
      "Ġbel": 1255,
      "Ġlab": 1256,
      "al": 1257,
      "##icular": 1258,
      "Ġthem": 1259,
      "Ġvent": 1260,
      "##ts": 1261,
      "##ished": 1262,
      "Ġinst": 1263,
      "Ġdiv": 1264,
      "Ġappear": 1265,
      "##bs": 1266,
      "Ġmole": 1267,
      "##rem": 1268,
      "Ġemb": 1269,
      "Ġjour": 1270,
      "##ribed": 1271,
      "Ġsuggest": 1272,
      "##duced": 1273,
      "Ġrecept": 1274,
      "Ġlesions": 1275,
      "Ġwhile": 1276,
      "Ġep": 1277,
      "Ġdorsal": 1278,
      "Ġanterior": 1279,
      "ĠĠĠĠ": 1280,
      "Ġgraft": 1281,
      "Ġroot": 1282,
      "Ġprotein": 1283,
      "Ġes": 1284,
      "Ġbefore": 1285,
      "Ġperi": 1286,
      "##agn": 1287,
      "##ues": 1288,
      "Ġmm": 1289,
      "Ġprim": 1290,
      "Ġmice": 1291,
      "##get": 1292,
      "Ġ'": 1293,
      "Ġ13": 1294,
      "Ġless": 1295,
      "which": 1296,
      "Ġdirect": 1297,
      "##iation": 1298,
      "Ġgreat": 1299,
      "Ġshowed": 1300,
      "##ff": 1301,
      "Ġcertain": 1302,
      "##ential": 1303,
      "##aining": 1304,
      ".;": 1305,
      "Ġcondition": 1306,
      "Ġorig": 1307,
      "Ġmuch": 1308,
      "##osed": 1309,
      "Ġsensory": 1310,
      "##ither": 1311,
      "##ox": 1312,
      "Ġyears": 1313,
      "##ited": 1314,
      "Ġinvol": 1315,
      "Ġgre": 1316,
      "Ġtub": 1317,
      "Ġfunctional": 1318,
      "##eld": 1319,
      "##ale": 1320,
      "Ġtem": 1321,
      "Ġfre": 1322,
      "##ities": 1323,
      "Ġpa": 1324,
      "Ġtransplant": 1325,
      "Ġsimilar": 1326,
      "Ġprog": 1327,
      "ch": 1328,
      "##face": 1329,
      "Ġhist": 1330,
      "Ġclin": 1331,
      "Ġpromot": 1332,
      "##rus": 1333,
      "Ġspec": 1334,
      "##ains": 1335,
      "##--": 1336,
      "Ġstruct": 1337,
      "Ġmonth": 1338,
      "Ġsin": 1339,
      "Ġhand": 1340,
      "##duction": 1341,
      "pro": 1342,
      "##its": 1343,
      "Ġmemb": 1344,
      "Ġed": 1345,
      "Ġposterior": 1346,
      "by": 1347,
      "##ize": 1348,
      "##cop": 1349,
      "Ġmy": 1350,
      "##der": 1351,
      "##tained": 1352,
      "Ġsuper": 1353,
      "##uss": 1354,
      "Ġsection": 1355,
      "Ġwork": 1356,
      "##tern": 1357,
      "##min": 1358,
      "##ences": 1359,
      "##aps": 1360,
      "##ately": 1361,
      "Ġdue": 1362,
      "##oma": 1363,
      "Ġmust": 1364,
      "##chan": 1365,
      "##reg": 1366,
      "Ġbas": 1367,
      "Ġcomm": 1368,
      "Ġcour": 1369,
      "pub": 1370,
      "##tal": 1371,
      "Ġhum": 1372,
      "12": 1373,
      "##omy": 1374,
      "Ġmove": 1375,
      "Ġregion": 1376,
      "Ġlateral": 1377,
      "##ice": 1378,
      "be": 1379,
      "Ġour": 1380,
      "Ġcur": 1381,
      "Ġwithout": 1382,
      "Ġcharacter": 1383,
      "##itions": 1384,
      "##ident": 1385,
      "##io": 1386,
      "Ġfactors": 1387,
      "Ġbran": 1388,
      "Ġrest": 1389,
      "Ġfour": 1390,
      "Ġpass": 1391,
      "Ġ24": 1392,
      "Ġneural": 1393,
      "Ġeffects": 1394,
      "Ġmor": 1395,
      "##though": 1396,
      "that": 1397,
      "##ways": 1398,
      "Ġ16": 1399,
      "##rop": 1400,
      "he": 1401,
      "ne": 1402,
      "##ention": 1403,
      "Ġoften": 1404,
      "Ġconst": 1405,
      "##ty": 1406,
      "##cer": 1407,
      "Ġsite": 1408,
      "Ġfurther": 1409,
      "Ġslight": 1410,
      "Ġintra": 1411,
      "Ġmarked": 1412,
      "Ġsections": 1413,
      "##ave": 1414,
      "Ġdet": 1415,
      "Ġap": 1416,
      "Ġseg": 1417,
      "Ġ21": 1418,
      "Ġuse": 1419,
      "##de": 1420,
      "pubmed": 1421,
      "Ġloss": 1422,
      "200": 1423,
      "Ġpress": 1424,
      "##son": 1425,
      "Ġeven": 1426,
      "for": 1427,
      "Ġrats": 1428,
      "Ġlocal": 1429,
      "##ï¬ģ": 1430,
      "Ġschwann": 1431,
      "Ġtest": 1432,
      "Ġmechan": 1433,
      "Ġstudies": 1434,
      "Ġ17": 1435,
      "Ġte": 1436,
      "Ġtum": 1437,
      "Ġmatter": 1438,
      "Ġdescribed": 1439,
      "Ġglial": 1440,
      "Ġcult": 1441,
      "##other": 1442,
      "Ġphysi": 1443,
      "##onse": 1444,
      "Ġcaus": 1445,
      "Ġelect": 1446,
      "Ġweeks": 1447,
      "Ġevidence": 1448,
      "##ified": 1449,
      "Ġthus": 1450,
      "##ency": 1451,
      "Ġusing": 1452,
      "Ġorgan": 1453,
      "##hel": 1454,
      "##ides": 1455,
      "Ġcle": 1456,
      "Ġlater": 1457,
      "Ġolig": 1458,
      "##fact": 1459,
      "Ġsubst": 1460,
      "on": 1461,
      "Ġ25": 1462,
      "Ġarea": 1463,
      "Ġsol": 1464,
      "##round": 1465,
      "Ġpsych": 1466,
      "Ġperiod": 1467,
      "Ġearly": 1468,
      "Ġfind": 1469,
      "Ġfew": 1470,
      "Ġembry": 1471,
      "Ġing": 1472,
      "##man": 1473,
      "Ġlay": 1474,
      "Ġsignific": 1475,
      "at": 1476,
      "##ock": 1477,
      "sh": 1478,
      "##ause": 1479,
      "Ġimpro": 1480,
      "Ġbar": 1481,
      "Ġprot": 1482,
      "Ġanat": 1483,
      "##pital": 1484,
      "Ġnucleus": 1485,
      "##icul": 1486,
      "Ġalthough": 1487,
      "##opl": 1488,
      "##phal": 1489,
      "Ġseem": 1490,
      "##ches": 1491,
      "Ġincreased": 1492,
      "Ġexpl": 1493,
      "##br": 1494,
      "Ġhigh": 1495,
      "Ġseveral": 1496,
      "Ġsurface": 1497,
      "##xim": 1498,
      "Ġmuscle": 1499,
      "##urn": 1500,
      "##ided": 1501,
      "##cent": 1502,
      "ĠâĢ¢": 1503,
      "Ġinclud": 1504,
      "Ġcourse": 1505,
      "Ġextens": 1506,
      "##bin": 1507,
      "Ġsk": 1508,
      "Ġresponse": 1509,
      "Ġmonths": 1510,
      "Ġcut": 1511,
      "##ement": 1512,
      "##por": 1513,
      "##hetic": 1514,
      "##ier": 1515,
      "Ġoperation": 1516,
      "##led": 1517,
      "Ġ22": 1518,
      "Ġneuronal": 1519,
      "Ġmain": 1520,
      "Ġsa": 1521,
      "##elf": 1522,
      "Ġpatients": 1523,
      "Ġactivity": 1524,
      "Ġcomplete": 1525,
      "13": 1526,
      "Ġnon": 1527,
      "Ġcond": 1528,
      "##uls": 1529,
      "Ġcoll": 1530,
      "##ption": 1531,
      "Ġmembran": 1532,
      "##ield": 1533,
      "##read": 1534,
      "Ġexperiments": 1535,
      "Ġmacroph": 1536,
      "Ġhos": 1537,
      "Ġpossible": 1538,
      "Ġadv": 1539,
      "Ġhyp": 1540,
      "Ġgiven": 1541,
      "Ġinjured": 1542,
      "Ġlower": 1543,
      "##ule": 1544,
      "##oint": 1545,
      "Ġcerebral": 1546,
      "##odend": 1547,
      "Ġsurv": 1548,
      "Ġneurot": 1549,
      "Ġdeg": 1550,
      "Ġhead": 1551,
      "se": 1552,
      "##rophic": 1553,
      "Ġagain": 1554,
      "âĢĻ": 1555,
      "##quently": 1556,
      "Ġsw": 1557,
      "Ġher": 1558,
      "Ġpain": 1559,
      "Ġday": 1560,
      "##alm": 1561,
      "##ival": 1562,
      "Ġsom": 1563,
      "Ġtyp": 1564,
      "Ġdeter": 1565,
      "Ġcontin": 1566,
      "Ġextend": 1567,
      "Ġprol": 1568,
      "##phth": 1569,
      "Ġscar": 1570,
      "15": 1571,
      "was": 1572,
      "Ġcir": 1573,
      "Ġ&": 1574,
      "Ġimportant": 1575,
      "Ġeither": 1576,
      "ĉĉĉĉ": 1577,
      ".)": 1578,
      "Ġtype": 1579,
      "Ġcal": 1580,
      "Ġinvest": 1581,
      "Ġest": 1582,
      "##bl": 1583,
      "Ġtherefore": 1584,
      "Ġreflex": 1585,
      "##usion": 1586,
      "Ġ23": 1587,
      "##cler": 1588,
      "Ġincrease": 1589,
      "Ġdemon": 1590,
      "##ised": 1591,
      "##eng": 1592,
      "Ġsheath": 1593,
      "##reated": 1594,
      "18": 1595,
      "Ġprevious": 1596,
      "##ficient": 1597,
      "##phil": 1598,
      "Ġhuman": 1599,
      "Ġrad": 1600,
      "Ġ30": 1601,
      "##rogl": 1602,
      "].": 1603,
      "Ġantib": 1604,
      "Ġaddition": 1605,
      "Ġoligodend": 1606,
      "##inct": 1607,
      "##erve": 1608,
      "Ġexc": 1609,
      "Ġusually": 1610,
      "Ġfar": 1611,
      "##resent": 1612,
      "##iple": 1613,
      "Ġabove": 1614,
      "Ġmedull": 1615,
      "Ġprocesses": 1616,
      "##ven": 1617,
      "Ġthough": 1618,
      "##ïĿ": 1619,
      "##amp": 1620,
      "##ird": 1621,
      "Ġmult": 1622,
      "##ulated": 1623,
      "##ics": 1624,
      "Ġwhe": 1625,
      "##rophy": 1626,
      "##odies": 1627,
      "198": 1628,
      "##omp": 1629,
      "##cially": 1630,
      "##ural": 1631,
      "Ġstate": 1632,
      "Ġassociated": 1633,
      "##........": 1634,
      "##ves": 1635,
      "Ġpot": 1636,
      "##ief": 1637,
      "Ġinflamm": 1638,
      "##ax": 1639,
      "##ouse": 1640,
      "##port": 1641,
      "Ġcortex": 1642,
      "##que": 1643,
      "Ġconf": 1644,
      "##aling": 1645,
      "Ġdoes": 1646,
      "##factory": 1647,
      "Ġval": 1648,
      "Ġrap": 1649,
      "Ġdefin": 1650,
      "##ired": 1651,
      "##pper": 1652,
      "Ġsince": 1653,
      "##ines": 1654,
      "Ġpe": 1655,
      "##ps": 1656,
      "##iated": 1657,
      "Ġmet": 1658,
      "##eb": 1659,
      "Ġneurite": 1660,
      "Ġsuf": 1661,
      "##onic": 1662,
      "##itu": 1663,
      "Ġportion": 1664,
      "Ġdeath": 1665,
      "Ġclinical": 1666,
      "Ġregard": 1667,
      "Ġnature": 1668,
      "##ittle": 1669,
      "##astic": 1670,
      "Ġrev": 1671,
      "Ġ28": 1672,
      "Ġsymp": 1673,
      "Ġgrow": 1674,
      "Ġdown": 1675,
      "Ġacid": 1676,
      "Ġwhite": 1677,
      "##ferent": 1678,
      "Ġconditions": 1679,
      "##ression": 1680,
      "Ġgo": 1681,
      "##ning": 1682,
      "Ġcyt": 1683,
      "Ġpur": 1684,
      ".âĢ": 1685,
      "20": 1686,
      "Ġdam": 1687,
      "14": 1688,
      "##ision": 1689,
      "Ġdemonstr": 1690,
      "Ġcap": 1691,
      "##gr": 1692,
      "Ġthera": 1693,
      "Ġsupport": 1694,
      "Ġwhether": 1695,
      "Ġanimal": 1696,
      "Ġ190": 1697,
      "Ġleg": 1698,
      "##arent": 1699,
      "Ġformation": 1700,
      "Ġmak": 1701,
      "Ġsignificant": 1702,
      "##way": 1703,
      "##ense": 1704,
      "Ġvarious": 1705,
      "Ġcrus": 1706,
      "Ġrole": 1707,
      "##chn": 1708,
      "Ġexperimental": 1709,
      "##oplasm": 1710,
      "Ġnuclei": 1711,
      "Ġlo": 1712,
      "##rh": 1713,
      "Ġve": 1714,
      "##aw": 1715,
      "##ene": 1716,
      "##ving": 1717,
      "Ġ26": 1718,
      "Ġstem": 1719,
      "Ġbecause": 1720,
      "Ġmechanism": 1721,
      "Ġmight": 1722,
      "Ġorigin": 1723,
      "##pecially": 1724,
      "Ġke": 1725,
      "##ont": 1726,
      "Ġtend": 1727,
      "Ġmat": 1728,
      "Ġlight": 1729,
      "Ġmolecul": 1730,
      "Ġident": 1731,
      "##ective": 1732,
      "Ġdie": 1733,
      "Ġever": 1734,
      "Ġparts": 1735,
      "Ġstill": 1736,
      "##ifer": 1737,
      ".-": 1738,
      "##ivers": 1739,
      "##growth": 1740,
      "Ġastrocytes": 1741,
      "##miss": 1742,
      "##lied": 1743,
      "Ġhour": 1744,
      "Ġconsist": 1745,
      "Ġanother": 1746,
      "##ification": 1747,
      "##ert": 1748,
      "Ġinvestig": 1749,
      "Ġnat": 1750,
      "##raction": 1751,
      "Ġreceptor": 1752,
      "Ġmid": 1753,
      "Ġvess": 1754,
      "Ġview": 1755,
      "Ġpresence": 1756,
      "##ms": 1757,
      "Ġdid": 1758,
      "Ġregenerating": 1759,
      "##asc": 1760,
      "Ġdiseases": 1761,
      "Ġknown": 1762,
      "Ġtar": 1763,
      "Ġrequ": 1764,
      "Ġcat": 1765,
      "##arch": 1766,
      "##ring": 1767,
      "##oy": 1768,
      "Ġaffected": 1769,
      "Ġacute": 1770,
      "Ġplace": 1771,
      "##rent": 1772,
      "Ġnecess": 1773,
      "Ġexam": 1774,
      "Ġgran": 1775,
      "##ability": 1776,
      "Ġrece": 1777,
      "##imin": 1778,
      "Ġrh": 1779,
      "Ġspecific": 1780,
      "##orn": 1781,
      "Ġanalysis": 1782,
      "Ġmental": 1783,
      "Ġalong": 1784,
      "##umb": 1785,
      "ind": 1786,
      "##ma": 1787,
      "Ġwhat": 1788,
      "Ġprov": 1789,
      "Ġfigure": 1790,
      "Ġprimary": 1791,
      "##ficult": 1792,
      "Ġvisual": 1793,
      "Ġreaction": 1794,
      "ĠâĢĵ": 1795,
      "Ġfluid": 1796,
      "##ife": 1797,
      "Ġvitamin": 1798,
      "from": 1799,
      "##ck": 1800,
      "##athetic": 1801,
      "Ġred": 1802,
      "Ġlittle": 1803,
      "Ġinterest": 1804,
      "##11": 1805,
      "Ġrapid": 1806,
      "ar": 1807,
      "##ema": 1808,
      "Ġappro": 1809,
      "##iet": 1810,
      "##tt": 1811,
      "Ġinfect": 1812,
      "Ġ27": 1813,
      "Ġaction": 1814,
      "##aneous": 1815,
      "##ibility": 1816,
      "##iate": 1817,
      "Ġline": 1818,
      "Ġdiagn": 1819,
      "##unct": 1820,
      "Ġill": 1821,
      "Ġdistrib": 1822,
      "Ġoutgrowth": 1823,
      "Ġmamm": 1824,
      "not": 1825,
      "Ġcause": 1826,
      "Ġwhole": 1827,
      "Ġinflu": 1828,
      "Ġ=": 1829,
      "##ark": 1830,
      "##yte": 1831,
      "##ison": 1832,
      "Ġdec": 1833,
      "Ġperform": 1834,
      "Ġhospital": 1835,
      "Ġgene": 1836,
      "Ġparticular": 1837,
      "Ġcerebell": 1838,
      "Ġquant": 1839,
      "##ters": 1840,
      "it": 1841,
      "Ġdepend": 1842,
      "Ġyo": 1843,
      "Ġcross": 1844,
      "Ġobtained": 1845,
      "Ġpub": 1846,
      "Ġophth": 1847,
      "Ġmater": 1848,
      "Ġment": 1849,
      "but": 1850,
      "ĠâĢľ": 1851,
      "Ġrepair": 1852,
      "Ġcontinu": 1853,
      "Ġway": 1854,
      "ĠĠĠĠĠĠĠ": 1855,
      "##vers": 1856,
      "##quent": 1857,
      "Ġunt": 1858,
      "##bit": 1859,
      "Ġcorre": 1860,
      "Ġsurvival": 1861,
      "##rad": 1862,
      "Ġfail": 1863,
      "Ġscler": 1864,
      "Ġpp": 1865,
      "Ġunivers": 1866,
      "##ronic": 1867,
      "Ġstimul": 1868,
      "):": 1869,
      "##rot": 1870,
      "##asion": 1871,
      "Ġrese": 1872,
      "Ġchem": 1873,
      "per": 1874,
      "med": 1875,
      "##pond": 1876,
      "Ġpup": 1877,
      "##osph": 1878,
      "Ġdistal": 1879,
      "Ġothers": 1880,
      "Ġprobably": 1881,
      "Ġfa": 1882,
      "17": 1883,
      "Ġsix": 1884,
      "Ġwall": 1885,
      "##aced": 1886,
      "Ġlevels": 1887,
      "##gin": 1888,
      "##orrh": 1889,
      "Ġchange": 1890,
      "##urb": 1891,
      "Ġopp": 1892,
      "le": 1893,
      "Ġcolum": 1894,
      "Ġpoly": 1895,
      "##imes": 1896,
      "##app": 1897,
      "Ġbd": 1898,
      "Ġnow": 1899,
      "##sp": 1900,
      "Ġupper": 1901,
      "##ites": 1902,
      "Ġsut": 1903,
      "Ġmes": 1904,
      "Ġglia": 1905,
      "##itud": 1906,
      "Ġcerv": 1907,
      "Ġlamin": 1908,
      "##raph": 1909,
      "##ivid": 1910,
      "pos": 1911,
      "Ġsize": 1912,
      "##âĢ¢": 1913,
      "Ġbeh": 1914,
      "Ġbecome": 1915,
      "Ġarch": 1916,
      "Ġprodu": 1917,
      "Ġtaken": 1918,
      "Ġdifficult": 1919,
      "##roscop": 1920,
      "Ġmembrane": 1921,
      "Ġprolifer": 1922,
      "##ellular": 1923,
      "Ġauth": 1924,
      "Ġsul": 1925,
      "sy": 1926,
      "Ġcommon": 1927,
      "Ġadd": 1928,
      "##jor": 1929,
      "Ġmouse": 1930,
      "Ġcompar": 1931,
      "Ġtarget": 1932,
      "Ġespecially": 1933,
      "Ġage": 1934,
      "##ogo": 1935,
      "##ried": 1936,
      "Ġmicrogl": 1937,
      "Ġrgcs": 1938,
      "##erg": 1939,
      "Ġinhibitory": 1940,
      "##ules": 1941,
      "âĢ¢": 1942,
      "Ġarter": 1943,
      "Ġequ": 1944,
      "we": 1945,
      "Ġ29": 1946,
      "Ġlead": 1947,
      "Ġmr": 1948,
      "Ġsepar": 1949,
      "Ġolfactory": 1950,
      "Ġsympathetic": 1951,
      "Ġshort": 1952,
      "im": 1953,
      "Ġsee": 1954,
      "##encephal": 1955,
      "Ġfat": 1956,
      "Ġhere": 1957,
      "Ġear": 1958,
      "##ivo": 1959,
      "##ery": 1960,
      "Ġentire": 1961,
      "##ength": 1962,
      "Ġdata": 1963,
      "##ording": 1964,
      "Ġmacrophages": 1965,
      "##isc": 1966,
      "Ġdoub": 1967,
      "16": 1968,
      "Ġproper": 1969,
      "Ġcount": 1970,
      "##ink": 1971,
      "Ġsing": 1972,
      "Ġseries": 1973,
      "Ġcompared": 1974,
      "##au": 1975,
      "Ġrefer": 1976,
      "Ġexist": 1977,
      "Ġdegree": 1978,
      "Ġï¬ģ": 1979,
      "Ġul": 1980,
      "Ġlayer": 1981,
      "##olar": 1982,
      "Ġden": 1983,
      "##ogn": 1984,
      "may": 1985,
      "Ġanti": 1986,
      "##lyc": 1987,
      "Ġcervical": 1988,
      "##fp": 1989,
      "Ġdom": 1990,
      "Ġstructure": 1991,
      "Ġalways": 1992,
      "Ġextrem": 1993,
      "Ġrepresent": 1994,
      "Ġpressure": 1995,
      "Ġcrush": 1996,
      "##lished": 1997,
      "Ġcare": 1998,
      "43": 1999,
      "Ġmass": 2000,
      "li": 2001,
      "##ll": 2002,
      "##nerv": 2003,
      "25": 2004,
      "Ġexamination": 2005,
      "cell": 2006,
      "Ġsal": 2007,
      "Ġ<": 2008,
      "Ġlabel": 2009,
      "Ġlike": 2010,
      "Ġvivo": 2011,
      "Ġ193": 2012,
      "##omes": 2013,
      "Ġable": 2014,
      "##most": 2015,
      "Ġamount": 2016,
      "Ġav": 2017,
      "##gl": 2018,
      "##ator": 2019,
      "Ġmethods": 2020,
      "Ġbiol": 2021,
      "##nf": 2022,
      "Ġ50": 2023,
      "##respond": 2024,
      "##alf": 2025,
      "Ġwound": 2026,
      "Ġmajor": 2027,
      "Ġstat": 2028,
      "this": 2029,
      "Ġsecondary": 2030,
      "##ae": 2031,
      "Ġposition": 2032,
      "Ġclass": 2033,
      "Ġfibro": 2034,
      "##oses": 2035,
      "Ġproduced": 2036,
      "Ġatrophy": 2037,
      "Ġmening": 2038,
      "##estion": 2039,
      "##af": 2040,
      "Ġexcept": 2041,
      "Ġdev": 2042,
      "pl": 2043,
      "Ġchild": 2044,
      "##etimes": 2045,
      "Ġstage": 2046,
      "##ict": 2047,
      "Ġbone": 2048,
      "Ġfield": 2049,
      "Ġlatter": 2050,
      "Ġvitro": 2051,
      "Ġsig": 2052,
      "Ġuniversity": 2053,
      "##vement": 2054,
      "Ġpract": 2055,
      "##ils": 2056,
      "Ġreported": 2057,
      "Ġphen": 2058,
      "##esis": 2059,
      "Ġmorph": 2060,
      "##ld": 2061,
      "##oph": 2062,
      "Ġcombin": 2063,
      "##ascular": 2064,
      "Ġgood": 2065,
      ".âĢĶ": 2066,
      "##gia": 2067,
      "##lect": 2068,
      "Ġcellular": 2069,
      "Ġproteins": 2070,
      "Ġvessels": 2071,
      "##ternal": 2072,
      "##epend": 2073,
      "##onal": 2074,
      "##wn": 2075,
      "##eared": 2076,
      "Ġhyper": 2077,
      "##ips": 2078,
      "Ġcall": 2079,
      "##ants": 2080,
      "Ġtimes": 2081,
      "Ġrespons": 2082,
      "Ġareas": 2083,
      "Ġmolecules": 2084,
      "com": 2085,
      "Ġenh": 2086,
      "ĠÂµ": 2087,
      "Ġinjection": 2088,
      "Ġforms": 2089,
      "Ġlength": 2090,
      "Ġprogress": 2091,
      "Ġchronic": 2092,
      "##20": 2093,
      "Ġjust": 2094,
      "##blast": 2095,
      "##ting": 2096,
      "##uf": 2097,
      "##utes": 2098,
      "Ġshows": 2099,
      "Ġsciatic": 2100,
      "##ending": 2101,
      "##to": 2102,
      "##wards": 2103,
      "##lin": 2104,
      "Ġfollowed": 2105,
      "Ġlast": 2106,
      "Ġhig": 2107,
      "##ially": 2108,
      "##rac": 2109,
      "##arm": 2110,
      "##aly": 2111,
      "Ġstrong": 2112,
      "Ġmot": 2113,
      "Ġindivid": 2114,
      "Ġsucc": 2115,
      "Ġmeas": 2116,
      "Ġnogo": 2117,
      "Ġsubject": 2118,
      "##uted": 2119,
      "##of": 2120,
      "##ilt": 2121,
      "Ġinvolved": 2122,
      "Ġpers": 2123,
      "##omen": 2124,
      "Ġlow": 2125,
      "##not": 2126,
      "Ġii": 2127,
      "Ġ100": 2128,
      "Ġvir": 2129,
      "Ġhours": 2130,
      "Ġtotal": 2131,
      "Ġdistinct": 2132,
      "Ġ1915": 2133,
      "Ġcy": 2134,
      "##genit": 2135,
      "Ġprof": 2136,
      "Ġsingle": 2137,
      "Ġrgc": 2138,
      "Ġgreater": 2139,
      "Ġuntil": 2140,
      "Ġfo": 2141,
      "##ah": 2142,
      "sp": 2143,
      "##ylind": 2144,
      "Ġsubstance": 2145,
      "Ġexpressed": 2146,
      "Ġphosph": 2147,
      "Ġten": 2148,
      "Ġfore": 2149,
      "Ġhim": 2150,
      "Ġback": 2151,
      "Ġ35": 2152,
      "Ġbranches": 2153,
      "##lication": 2154,
      "Ġventric": 2155,
      "Ġ+": 2156,
      "Ġmicroscop": 2157,
      "Ġtempor": 2158,
      "Ġcurrent": 2159,
      "##ocal": 2160,
      "Ġaxis": 2161,
      "Ġthird": 2162,
      "Ġdetermin": 2163,
      "##alth": 2164,
      "Ġspecial": 2165,
      "Ġevery": 2166,
      "Ġresearch": 2167,
      "Ġleast": 2168,
      "Ġcorrespond": 2169,
      "Ġsevere": 2170,
      "Ġobservations": 2171,
      "Ġsuperior": 2172,
      "Ġmultiple": 2173,
      "Ġverte": 2174,
      "Ġperformed": 2175,
      "##ling": 2176,
      "there": 2177,
      "Ġganglia": 2178,
      "##ged": 2179,
      "Ġventral": 2180,
      "Ġ*": 2181,
      "Ġstimulation": 2182,
      "##duc": 2183,
      "##ret": 2184,
      "##order": 2185,
      "Ġ40": 2186,
      "Ġmodel": 2187,
      "##atively": 2188,
      "Ġ33": 2189,
      "Ġweak": 2190,
      "Ġdest": 2191,
      "Ġplex": 2192,
      "Ġneurop": 2193,
      "Ġknow": 2194,
      "Ġpotential": 2195,
      "Ġsuccess": 2196,
      "Ġbul": 2197,
      "##omotor": 2198,
      "par": 2199,
      "##ores": 2200,
      "Ġoccurs": 2201,
      "Ġtreated": 2202,
      "Ġappearance": 2203,
      "Ġregul": 2204,
      "dise": 2205,
      "Ġread": 2206,
      "Ġnever": 2207,
      "Ġtumor": 2208,
      "Ġtraum": 2209,
      "Ġgu": 2210,
      "Ġsel": 2211,
      "Ġsegment": 2212,
      "Ġgr": 2213,
      "Ġtissues": 2214,
      "Ġmedical": 2215,
      "Ġquite": 2216,
      "Ġrather": 2217,
      "Ġimmed": 2218,
      "Ġtypes": 2219,
      "##ymph": 2220,
      "##sk": 2221,
      "Ġgroups": 2222,
      "Ġneurolog": 2223,
      "res": 2224,
      "Ġjournal": 2225,
      "Ġapparent": 2226,
      "##rag": 2227,
      "Ġconv": 2228,
      "Ġalmost": 2229,
      "Ġsyphil": 2230,
      "ĠÂ·": 2231,
      "000": 2232,
      "Ġmal": 2233,
      "201": 2234,
      "##verse": 2235,
      "Ġce": 2236,
      "Ġdiagnosis": 2237,
      "##ern": 2238,
      "##ones": 2239,
      "Ġste": 2240,
      "##uries": 2241,
      "Ġrab": 2242,
      "##vir": 2243,
      "Ġneu": 2244,
      "Ġcontrib": 2245,
      "Ġprepar": 2246,
      "##any": 2247,
      "Ġaxot": 2248,
      "21": 2249,
      "##ives": 2250,
      "Ġunc": 2251,
      "Ġextent": 2252,
      "fib": 2253,
      "Ġorder": 2254,
      "##ivity": 2255,
      "Ġsometimes": 2256,
      "##ands": 2257,
      "##rocyte": 2258,
      "Ġfam": 2259,
      "Ġlob": 2260,
      "Ġchi": 2261,
      "Ġinternal": 2262,
      "##ranial": 2263,
      "Ġallow": 2264,
      "Ġlife": 2265,
      "Ġ37": 2266,
      "Ġshowing": 2267,
      "##alk": 2268,
      "Ġsignaling": 2269,
      "Ġess": 2270,
      "Ġmovements": 2271,
      "ad": 2272,
      "##uk": 2273,
      "Ġvision": 2274,
      "##enty": 2275,
      "##ixed": 2276,
      "Ġpower": 2277,
      "Ġdiscuss": 2278,
      "Ġalter": 2279,
      "Ġskin": 2280,
      "Ġnecessary": 2281,
      "Ġmaterial": 2282,
      "me": 2283,
      "##isp": 2284,
      "app": 2285,
      "Ġmeans": 2286,
      "Ġsus": 2287,
      "spinal": 2288,
      "Ġmig": 2289,
      "##fish": 2290,
      "##ctions": 2291,
      "##ising": 2292,
      "Ġdem": 2293,
      "Ġroots": 2294,
      "##27": 2295,
      "Ġinit": 2296,
      "Ġexamined": 2297,
      "##ilateral": 2298,
      "Ġ31": 2299,
      "one": 2300,
      "##fici": 2301,
      "Ġneg": 2302,
      "Ġpositive": 2303,
      "##oved": 2304,
      "##iat": 2305,
      "##iform": 2306,
      "Ġeyes": 2307,
      "Ġdistribution": 2308,
      "Ġtox": 2309,
      "Ġpy": 2310,
      "##ination": 2311,
      "Ġrecord": 2312,
      "Ġneed": 2313,
      "Ġophthalm": 2314,
      "Ġaccording": 2315,
      "##iving": 2316,
      "##iol": 2317,
      "##istic": 2318,
      "Ġ34": 2319,
      "Ġrecogn": 2320,
      "##tely": 2321,
      "Ġrelation": 2322,
      "##den": 2323,
      "un": 2324,
      "Ġrate": 2325,
      "Ġstaining": 2326,
      "Ġtechn": 2327,
      "Ġsclerosis": 2328,
      "Ġgray": 2329,
      "âĢĶ": 2330,
      "Ġappears": 2331,
      "Ġdecre": 2332,
      "30": 2333,
      "Ġfrequently": 2334,
      "##less": 2335,
      "Ġexperiment": 2336,
      "##mitt": 2337,
      "Ġbo": 2338,
      "Ġgive": 2339,
      "Ġheart": 2340,
      "##cri": 2341,
      "Ġsitu": 2342,
      "Ġamong": 2343,
      "Ġmicroglia": 2344,
      "..": 2345,
      "Ġur": 2346,
      "Ġyear": 2347,
      "Ġabsence": 2348,
      "nerve": 2349,
      "like": 2350,
      "##py": 2351,
      "24": 2352,
      "Ġtransplantation": 2353,
      "Ġconcl": 2354,
      "23": 2355,
      "Ġfibr": 2356,
      "Ġreve": 2357,
      "Ġdiss": 2358,
      "##viron": 2359,
      "Ġfil": 2360,
      "##yelitis": 2361,
      "##tion": 2362,
      "Ġcomplex": 2363,
      "Ġyet": 2364,
      ".\"": 2365,
      "Ġbra": 2366,
      "reg": 2367,
      "Ġwater": 2368,
      "Ġoccasion": 2369,
      "Ġattac": 2370,
      "Ġbelow": 2371,
      "Ġdamage": 2372,
      "Ġnor": 2373,
      "Ġthick": 2374,
      "der": 2375,
      "Ġ1999": 2376,
      "Ġdifferentiation": 2377,
      "##ton": 2378,
      "##ik": 2379,
      "Ġpig": 2380,
      "Ġembryonic": 2381,
      "Ġformed": 2382,
      "Ġstages": 2383,
      "Ġpaper": 2384,
      "Ġmer": 2385,
      "##ened": 2386,
      "##alam": 2387,
      "Ġrespect": 2388,
      "##set": 2389,
      "Ġproj": 2390,
      "##ump": 2391,
      "Ġhealth": 2392,
      "ph": 2393,
      "Ġfiber": 2394,
      "Ġtracts": 2395,
      "Ġneuritis": 2396,
      "##unk": 2397,
      "Ġsyn": 2398,
      "Ġclear": 2399,
      "Ġnear": 2400,
      "##erous": 2401,
      "Ġterminal": 2402,
      "##ficiency": 2403,
      "##ochem": 2404,
      "Ġactivation": 2405,
      "Ġgal": 2406,
      "##une": 2407,
      "af": 2408,
      "Ġapplied": 2409,
      "Ġagainst": 2410,
      "ab": 2411,
      "Ġregions": 2412,
      "Ġlymph": 2413,
      "##aces": 2414,
      "##anced": 2415,
      "##aged": 2416,
      "Ġinduced": 2417,
      "##iting": 2418,
      "Ġoligodendrocytes": 2419,
      "Ġgenes": 2420,
      "Ġdisturb": 2421,
      "##inding": 2422,
      "Ġcaud": 2423,
      "en": 2424,
      "Ġrare": 2425,
      "##ason": 2426,
      "Ġepit": 2427,
      "Ġinjuries": 2428,
      "Ġpoints": 2429,
      "Ġantibody": 2430,
      "Ġmolecular": 2431,
      "##ste": 2432,
      "Ġexample": 2433,
      "Ġdog": 2434,
      "Ġge": 2435,
      "Ġ36": 2436,
      "Ġmuscular": 2437,
      "##iver": 2438,
      "Ġsil": 2439,
      "##rout": 2440,
      "Ġ1997": 2441,
      "22": 2442,
      "##etic": 2443,
      "Ġremoved": 2444,
      "Ġexperi": 2445,
      "Ġdistance": 2446,
      "Ġsolution": 2447,
      "##iculus": 2448,
      "Ġcirc": 2449,
      "Ġpreviously": 2450,
      "ĠĠĠĠĠĠ": 2451,
      "Ġgrafts": 2452,
      "##ley": 2453,
      "Ġ1994": 2454,
      "Ġdil": 2455,
      "Ġcannot": 2456,
      "bl": 2457,
      "##arily": 2458,
      "Ġreturn": 2459,
      "Ġdeep": 2460,
      "##urs": 2461,
      "spe": 2462,
      "##ool": 2463,
      "Ġreceptors": 2464,
      "Ġanatom": 2465,
      "Ġsecre": 2466,
      "##ograph": 2467,
      "Ġ32": 2468,
      "##ges": 2469,
      "Ġcontr": 2470,
      "##berg": 2471,
      "Ġsurround": 2472,
      "##ospinal": 2473,
      "Ġphysiological": 2474,
      "##ipp": 2475,
      "Ġinte": 2476,
      "Ġconse": 2477,
      "Ġarm": 2478,
      "part": 2479,
      "Ġfive": 2480,
      "these": 2481,
      "Ġxx": 2482,
      "Ġintr": 2483,
      "##sc": 2484,
      "##xt": 2485,
      "Ġann": 2486,
      "Ġrecent": 2487,
      "Ġhalf": 2488,
      "Ġenter": 2489,
      "Ġmake": 2490,
      "##bers": 2491,
      "Ġpattern": 2492,
      "Ġdemonstrated": 2493,
      "Ġseems": 2494,
      "##ensity": 2495,
      "##lation": 2496,
      "Ġincluding": 2497,
      "cont": 2498,
      "Ġreview": 2499,
      "Ġtable": 2500,
      "Ġquestion": 2501,
      "Ġinhibition": 2502,
      "Ġtemper": 2503,
      "Ġfinal": 2504,
      "Ġprop": 2505,
      "Ġpathway": 2506,
      "Ġinfluence": 2507,
      "Ġgap": 2508,
      "Ġang": 2509,
      "Ġstained": 2510,
      "Ġox": 2511,
      "Ġoff": 2512,
      "Ġdy": 2513,
      "Ġplaced": 2514,
      "##ohol": 2515,
      "Ġguid": 2516,
      "Ġtoget": 2517,
      "##ficial": 2518,
      "Ġchiasm": 2519,
      "##lor": 2520,
      "Ġestab": 2521,
      "##ify": 2522,
      "Ġtogether": 2523,
      "Ġhigher": 2524,
      "gen": 2525,
      "Ġter": 2526,
      "Ġsubse": 2527,
      "Ġproliferation": 2528,
      "Ġsprout": 2529,
      "Ġlimb": 2530,
      "##vironment": 2531,
      "##empt": 2532,
      "Ġdeveloped": 2533,
      "##ustr": 2534,
      "##cohol": 2535,
      "Ġhom": 2536,
      "Ġessential": 2537,
      "Ġbund": 2538,
      "Ġmedic": 2539,
      "Ġexternal": 2540,
      "Ġassoci": 2541,
      "Ġaccount": 2542,
      "Ġgold": 2543,
      "Ġbelie": 2544,
      "##itic": 2545,
      "Ġda": 2546,
      "Ġconsiderable": 2547,
      "##ange": 2548,
      "##ker": 2549,
      "Ġmechanisms": 2550,
      "##ximal": 2551,
      "Ġ2000": 2552,
      "Ġplexus": 2553,
      "##hat": 2554,
      "Ġgenerally": 2555,
      "sym": 2556,
      "Ġcortical": 2557,
      "##iology": 2558,
      "Ġ1995": 2559,
      "##mann": 2560,
      "Ġinfer": 2561,
      "Ġdu": 2562,
      "Ġasc": 2563,
      "31": 2564,
      "##cious": 2565,
      "Ġmag": 2566,
      "Ġeas": 2567,
      "##alyz": 2568,
      "Ġfunctions": 2569,
      "Ġpromote": 2570,
      "Ġsegments": 2571,
      "##ching": 2572,
      "su": 2573,
      "Ġoppos": 2574,
      "##gs": 2575,
      "##yp": 2576,
      "##ios": 2577,
      "##ready": 2578,
      "Ġmedulla": 2579,
      "Ġber": 2580,
      "Ġnet": 2581,
      "Ġbehav": 2582,
      "Ġ1996": 2583,
      "Ġconj": 2584,
      "Ġinteract": 2585,
      "##ique": 2586,
      "Ġaver": 2587,
      "27": 2588,
      "##ius": 2589,
      "associated": 2590,
      "cases": 2591,
      "nerv": 2592,
      "##ina": 2593,
      "Ġcylind": 2594,
      "##ytic": 2595,
      "Ġfron": 2596,
      "Ġisol": 2597,
      "tw": 2598,
      "Ġbene": 2599,
      "Ġcompletely": 2600,
      "Ġinflammatory": 2601,
      "##hesia": 2602,
      "Ġcorne": 2603,
      "derived": 2604,
      "##rical": 2605,
      "##ler": 2606,
      "Ġinterv": 2607,
      "Ġconsidered": 2608,
      "##regular": 2609,
      "Ġil": 2610,
      "Ġsum": 2611,
      "Ġ1998": 2612,
      "##idal": 2613,
      "Ġprec": 2614,
      "Ġgradu": 2615,
      "Ġ).": 2616,
      "##aled": 2617,
      "Ġpop": 2618,
      "Ġold": 2619,
      "##fl": 2620,
      "Ġsigns": 2621,
      "##kely": 2622,
      "##itation": 2623,
      "##illed": 2624,
      "##mission": 2625,
      "Ġreceived": 2626,
      "Ġmovement": 2627,
      "see": 2628,
      "##inase": 2629,
      "Ġstri": 2630,
      "##ependent": 2631,
      "Ġindividual": 2632,
      "##ceed": 2633,
      "Ġmit": 2634,
      "Ġflex": 2635,
      "inj": 2636,
      "##Â·": 2637,
      "##alian": 2638,
      "Ġhyd": 2639,
      "Ġdra": 2640,
      "Ġdiff": 2641,
      "Ġfif": 2642,
      "26": 2643,
      "##dle": 2644,
      "Ġbodies": 2645,
      "##itudinal": 2646,
      "Ġthor": 2647,
      "Ġaround": 2648,
      "Ġsufficient": 2649,
      "##ino": 2650,
      "Ġ38": 2651,
      "Ġfacial": 2652,
      "##go": 2653,
      "##ype": 2654,
      "Ġkind": 2655,
      "Ġdiet": 2656,
      "Ġdefect": 2657,
      "Ġ1993": 2658,
      "Ġculture": 2659,
      "Ġcolumn": 2660,
      "##pect": 2661,
      "##aff": 2662,
      "Ġscience": 2663,
      "100": 2664,
      "##peut": 2665,
      "35": 2666,
      "##ples": 2667,
      "ĠâĢĶ": 2668,
      "Ġsuture": 2669,
      "##ime": 2670,
      "Ġcav": 2671,
      "Ġregenerative": 2672,
      "Ġtect": 2673,
      "Ġtions": 2674,
      "Ġwor": 2675,
      "Ġfing": 2676,
      "Ġbro": 2677,
      "Ġmedian": 2678,
      "Ġstand": 2679,
      "positive": 2680,
      "Ġrelations": 2681,
      "Ġproduce": 2682,
      "Ġcontract": 2683,
      "Ġsensation": 2684,
      "##inci": 2685,
      "28": 2686,
      "Ġflu": 2687,
      "Ġhaving": 2688,
      "Ġpage": 2689,
      "##lem": 2690,
      "Ġ48": 2691,
      "##95": 2692,
      "##hesis": 2693,
      "Ġ43": 2694,
      "##gery": 2695,
      "Ġantibodies": 2696,
      "Ġcone": 2697,
      "Ġgrad": 2698,
      "Ġappeared": 2699,
      "##duct": 2700,
      "Ġjoint": 2701,
      "Ġnumerous": 2702,
      "Ġlarger": 2703,
      "Ġ45": 2704,
      "##opt": 2705,
      "##ili": 2706,
      "##oglyc": 2707,
      "##atal": 2708,
      "Ġrise": 2709,
      "##orrhage": 2710,
      "Â°": 2711,
      "Ġfree": 2712,
      "Ġderived": 2713,
      "##cr": 2714,
      "##ists": 2715,
      "Ġirrit": 2716,
      "Ġcauses": 2717,
      "Ġq": 2718,
      "Ġnoted": 2719,
      "34": 2720,
      "##ruction": 2721,
      "##cing": 2722,
      "##ash": 2723,
      "Ġhor": 2724,
      "Ġitself": 2725,
      "Ġmc": 2726,
      "Ġyoung": 2727,
      "Ġoriginal": 2728,
      "##iii": 2729,
      "Ġclos": 2730,
      "Ġjourn": 2731,
      "##itute": 2732,
      "Ġbecomes": 2733,
      "Ġoccurred": 2734,
      "##pi": 2735,
      "Ġcortic": 2736,
      "Ġgm": 2737,
      "Ġslow": 2738,
      "Ġcontact": 2739,
      "##apse": 2740,
      "##pus": 2741,
      "##co": 2742,
      "Ġvag": 2743,
      "Ġ44": 2744,
      "Ġthroughout": 2745,
      "##eral": 2746,
      "##illary": 2747,
      "Ġnod": 2748,
      "Ġbecame": 2749,
      "Ġepile": 2750,
      "Ġinfection": 2751,
      "have": 2752,
      "Ġcm": 2753,
      "Ġlens": 2754,
      "##ume": 2755,
      "##ploy": 2756,
      "Ġsaid": 2757,
      "Ġfac": 2758,
      "Ġstra": 2759,
      "##ension": 2760,
      "##rix": 2761,
      "##ylum": 2762,
      "Ġattempt": 2763,
      "Ġtrig": 2764,
      "Ġdefinite": 2765,
      "Ġbegin": 2766,
      "##erved": 2767,
      "Ġdirectly": 2768,
      "Ġreduced": 2769,
      "Ġalready": 2770,
      "some": 2771,
      "Ġdig": 2772,
      "Ġprotoplasm": 2773,
      "Ġextensive": 2774,
      "##ises": 2775,
      "Ġmem": 2776,
      "##................": 2777,
      "Ġdisapp": 2778,
      "##nee": 2779,
      "Ġinflammation": 2780,
      "##naptic": 2781,
      "Ġindu": 2782,
      "Ġremov": 2783,
      "Ġepithel": 2784,
      "##iter": 2785,
      "##urg": 2786,
      "##mitted": 2787,
      "Ġintact": 2788,
      "Ġhar": 2789,
      "Ġlongitudinal": 2790,
      "Ġserum": 2791,
      "Ġsubstr": 2792,
      "Ġenvironment": 2793,
      "Ġdifference": 2794,
      "Ġprevent": 2795,
      "##uli": 2796,
      "Ġsept": 2797,
      "Ġneurotrophic": 2798,
      ",âĢ": 2799,
      "Ġzh": 2800,
      "mus": 2801,
      "##hing": 2802,
      "05": 2803,
      "Ġlumb": 2804,
      "Ġsoc": 2805,
      "##ids": 2806,
      "Ġdend": 2807,
      "Ġfibroblast": 2808,
      "Ġtemporal": 2809,
      "his": 2810,
      "##mer": 2811,
      "Ġnote": 2812,
      "Ġcontaining": 2813,
      "Ġelements": 2814,
      "Ġfamily": 2815,
      ",\"": 2816,
      "Ġmammalian": 2817,
      "33": 2818,
      "Ġvalue": 2819,
      "Ġfibre": 2820,
      "##me": 2821,
      "Ġadmin": 2822,
      "Ġpupil": 2823,
      "##sis": 2824,
      "Ġplate": 2825,
      "pat": 2826,
      "##what": 2827,
      "##ura": 2828,
      "they": 2829,
      "Ġtemperature": 2830,
      "Ġdeveloping": 2831,
      "Ġscale": 2832,
      "Ġindicate": 2833,
      "ĉĉĉĉĉ": 2834,
      "##elling": 2835,
      "Ġopin": 2836,
      "induced": 2837,
      "cells": 2838,
      "Ġopposite": 2839,
      "Ġinfilt": 2840,
      "##inj": 2841,
      "Ġobject": 2842,
      "##ars": 2843,
      "##23": 2844,
      "##yster": 2845,
      "01": 2846,
      "##Ã¦": 2847,
      "Ġbrid": 2848,
      "cond": 2849,
      "Ġalcohol": 2850,
      "Ġinteresting": 2851,
      "Ġ39": 2852,
      "##ogenous": 2853,
      "Ġtrue": 2854,
      "##mine": 2855,
      "##ned": 2856,
      "Ġdivided": 2857,
      "Ġmean": 2858,
      "Ġcones": 2859,
      "Ġcaused": 2860,
      "Ġcerebellum": 2861,
      "Ġwr": 2862,
      "Ġconcent": 2863,
      "##lar": 2864,
      "Ġdimin": 2865,
      "##utions": 2866,
      "Ġcompon": 2867,
      "Ġ/": 2868,
      "Ġintrac": 2869,
      "Ġmrna": 2870,
      "Ġcrit": 2871,
      "Ġbre": 2872,
      "form": 2873,
      "##opia": 2874,
      "Ġ2012": 2875,
      "Ġreason": 2876,
      "Ġdifferences": 2877,
      "Ġga": 2878,
      "Ġweek": 2879,
      "Ġadhes": 2880,
      "Ġregenerate": 2881,
      "Ġinnerv": 2882,
      "Ġconcer": 2883,
      "Ġactive": 2884,
      "Ġ2013": 2885,
      "Ġconfir": 2886,
      "Ġbulb": 2887,
      "Ġsimple": 2888,
      "Ġweight": 2889,
      "##ocytes": 2890,
      "Ġsurg": 2891,
      "##25": 2892,
      "##cies": 2893,
      "##alyzed": 2894,
      "were": 2895,
      "##ressed": 2896,
      "##itary": 2897,
      "Ġtake": 2898,
      "Ġimportance": 2899,
      "##rate": 2900,
      "##inary": 2901,
      "Ġpathological": 2902,
      "Ġnegative": 2903,
      "##sch": 2904,
      "##iately": 2905,
      "Ġprogenit": 2906,
      "Ġsequ": 2907,
      "Ġtwenty": 2908,
      "Ġpol": 2909,
      "##acity": 2910,
      "Ġparticularly": 2911,
      "##used": 2912,
      "Ġset": 2913,
      "Ġprinci": 2914,
      "Ġsulf": 2915,
      "Ġcr": 2916,
      "Ġacad": 2917,
      "Ġcontrast": 2918,
      "us": 2919,
      "Ġadj": 2920,
      "##iefly": 2921,
      "cl": 2922,
      "Ġsuffer": 2923,
      "Ġpathways": 2924,
      "Ġability": 2925,
      "50": 2926,
      "Ġlig": 2927,
      "Ġphot": 2928,
      "Ġsignificantly": 2929,
      "Ġsema": 2930,
      "Ġlack": 2931,
      "Ġtranscri": 2932,
      "Ġschwab": 2933,
      "##roit": 2934,
      "Ġdivision": 2935,
      "Ġusa": 2936,
      ",âĢĿ": 2937,
      "00": 2938,
      "Ġillustr": 2939,
      "Ġinferior": 2940,
      "Ġvascular": 2941,
      "##asticity": 2942,
      "ĠÎ": 2943,
      "##fort": 2944,
      "Ġinner": 2945,
      "Ġplasm": 2946,
      "Ġlabor": 2947,
      "when": 2948,
      "Ġclose": 2949,
      "##ole": 2950,
      "Ġtuber": 2951,
      "Ġtherapy": 2952,
      "dist": 2953,
      "Ġlost": 2954,
      "Ġtransection": 2955,
      "Ġmiddle": 2956,
      "Ġsoft": 2957,
      "Ġmill": 2958,
      "Ġnt": 2959,
      "##ulin": 2960,
      "Ġproteoglyc": 2961,
      "Ġstump": 2962,
      "##ams": 2963,
      "Ġinjected": 2964,
      "Ġvari": 2965,
      "Ġdirection": 2966,
      "##och": 2967,
      "##cus": 2968,
      "##uly": 2969,
      "Ġslightly": 2970,
      "##by": 2971,
      "##rote": 2972,
      "Ġhistory": 2973,
      "Ġimprovement": 2974,
      "##ored": 2975,
      "##ondon": 2976,
      ");": 2977,
      "Ġ197": 2978,
      "Ġaxotomy": 2979,
      "Ġsup": 2980,
      "Ġconnections": 2981,
      "##put": 2982,
      "##unter": 2983,
      "Ġproximal": 2984,
      "Ġindicated": 2985,
      "Ġresponses": 2986,
      "##haps": 2987,
      "Ġfish": 2988,
      "Ġdiame": 2989,
      "ĠÂµm": 2990,
      "Ġlimbs": 2991,
      "##ou": 2992,
      "##ayed": 2993,
      "Ġlikely": 2994,
      "Ġsmaller": 2995,
      "Ġ2011": 2996,
      "Ġlimited": 2997,
      "Ġemploy": 2998,
      "##omm": 2999,
      "Ġtherapeut": 3000,
      "Ġcranial": 3001,
      "##usions": 3002,
      "Ġapplication": 3003,
      "Ġamer": 3004,
      "40": 3005,
      "Ġmedial": 3006,
      "Ġouter": 3007,
      "Ġbetter": 3008,
      "##ogle": 3009,
      "##----": 3010,
      "Ġsac": 3011,
      "Ġcre": 3012,
      "Ġfall": 3013,
      "##stand": 3014,
      "Ġmg": 3015,
      "##unction": 3016,
      "Ġrespir": 3017,
      "Ġsprouting": 3018,
      "di": 3019,
      "##gans": 3020,
      "##elet": 3021,
      "Ġhistological": 3022,
      "##inated": 3023,
      "##otic": 3024,
      "##ula": 3025,
      "Ġzone": 3026,
      "Ġbasal": 3027,
      "##ulses": 3028,
      "trans": 3029,
      "Ġpen": 3030,
      "Ġmut": 3031,
      "Ġextrac": 3032,
      "Ġconstant": 3033,
      "##28": 3034,
      "Ġmarch": 3035,
      "##ril": 3036,
      "Ġturn": 3037,
      "Ġreflexes": 3038,
      "Ġintegr": 3039,
      "Ġfgf": 3040,
      "Ġ189": 3041,
      "Ġentirely": 3042,
      "Ġproc": 3043,
      "Ġsomewhat": 3044,
      "29": 3045,
      "Ġrecently": 3046,
      "##oration": 3047,
      "Ġaverage": 3048,
      "up": 3049,
      "##be": 3050,
      "Ġwhereas": 3051,
      "Ġauthor": 3052,
      "no": 3053,
      "Ġface": 3054,
      "Ġaccomp": 3055,
      "Ġlonger": 3056,
      "Ġpromotes": 3057,
      "symptom": 3058,
      "##ties": 3059,
      "Ġ46": 3060,
      "Ġmicro": 3061,
      "Ġdone": 3062,
      "Ġhemisp": 3063,
      "Ġmention": 3064,
      "Ġrele": 3065,
      "##phas": 3066,
      "Ġearli": 3067,
      "##oly": 3068,
      "sub": 3069,
      "Ġthin": 3070,
      "Ġrequired": 3071,
      "##emia": 3072,
      "Ġsupply": 3073,
      "##ledge": 3074,
      "38": 3075,
      "Ġcenter": 3076,
      "##asal": 3077,
      "Ġexhib": 3078,
      "Ġtube": 3079,
      "Ġstructures": 3080,
      "Ġdetail": 3081,
      "Ġfav": 3082,
      "Ġvirus": 3083,
      "Ġchond": 3084,
      "Ġdoubt": 3085,
      "Ġabn": 3086,
      "patient": 3087,
      "has": 3088,
      "Ġventricle": 3089,
      "Ġguidance": 3090,
      "39": 3091,
      "Ġcultures": 3092,
      "Ġfasc": 3093,
      "##fap": 3094,
      "Ġcanal": 3095,
      "##ebra": 3096,
      "Ġattention": 3097,
      "occ": 3098,
      "##che": 3099,
      "##ai": 3100,
      "##21": 3101,
      "##atus": 3102,
      "##ape": 3103,
      "##ossible": 3104,
      "act": 3105,
      "##ech": 3106,
      "##arp": 3107,
      "Ġregulation": 3108,
      "Ġcaudal": 3109,
      "Ġspace": 3110,
      "##ux": 3111,
      "##uring": 3112,
      "Ġ41": 3113,
      "##abel": 3114,
      "Ġhel": 3115,
      "##ulse": 3116,
      "Ġpersist": 3117,
      "Ġmagn": 3118,
      "Ġrelated": 3119,
      "Ġassociation": 3120,
      "Ġos": 3121,
      "Ġsat": 3122,
      "Ġbest": 3123,
      "Ġsurgery": 3124,
      "##ended": 3125,
      "Ġcorpus": 3126,
      "Ġrun": 3127,
      "##oked": 3128,
      "##).": 3129,
      "Ġpyram": 3130,
      "Ġvon": 3131,
      "Ġtransverse": 3132,
      "Ġpartial": 3133,
      "Ġnumbers": 3134,
      "Ġauthors": 3135,
      "Ġvary": 3136,
      "Ġelong": 3137,
      "##ï¬Ĥ": 3138,
      "Ġple": 3139,
      "Ġnext": 3140,
      ".:": 3141,
      "##itz": 3142,
      "Ġbased": 3143,
      "Ġpathology": 3144,
      "ext": 3145,
      "##dom": 3146,
      "Ġirregular": 3147,
      "##âĢ¢âĢ¢": 3148,
      "Ġsyphilis": 3149,
      "##vent": 3150,
      "##ality": 3151,
      "Ġintro": 3152,
      "Ġein": 3153,
      "##ingu": 3154,
      "Ġdomain": 3155,
      "Ġcover": 3156,
      "Ġlumbar": 3157,
      "##igen": 3158,
      "Ġmatrix": 3159,
      "Ġbdnf": 3160,
      "##hy": 3161,
      "Ġgfp": 3162,
      "Ġjan": 3163,
      "Ġblock": 3164,
      "##ott": 3165,
      "##ford": 3166,
      "##bor": 3167,
      "Ġnerven": 3168,
      "Ġcarried": 3169,
      "Ġgrowing": 3170,
      "##king": 3171,
      "Ġ60": 3172,
      "cons": 3173,
      "##29": 3174,
      "Ġsense": 3175,
      "Ġimmediately": 3176,
      "45": 3177,
      "##26": 3178,
      "Ġneuroscience": 3179,
      "Ġfailure": 3180,
      "##osition": 3181,
      "##omas": 3182,
      "##uble": 3183,
      "Ġpurp": 3184,
      "Ġlabeled": 3185,
      "Ġconjunct": 3186,
      "##gement": 3187,
      "Ġmedium": 3188,
      "Ġcerebro": 3189,
      "##ake": 3190,
      "##chym": 3191,
      "Ġcommiss": 3192,
      "Ġfourth": 3193,
      "Ġrho": 3194,
      "##rade": 3195,
      "Ġzebra": 3196,
      "Ġpresented": 3197,
      "Ġextracellular": 3198,
      "Ġmil": 3199,
      "Ġphenomen": 3200,
      "Ġround": 3201,
      "Ġtypical": 3202,
      "##ached": 3203,
      "Ġobservation": 3204,
      "Ġtab": 3205,
      "Ġalone": 3206,
      "Ġdiscover": 3207,
      "Ġ1991": 3208,
      "##yond": 3209,
      "Ġnorm": 3210,
      "Ġput": 3211,
      "Ġtoo": 3212,
      "Ġonset": 3213,
      "Ġstudied": 3214,
      "Ġrapidly": 3215,
      "##40": 3216,
      "Ġwrit": 3217,
      "Ġng": 3218,
      "Ġspl": 3219,
      "Ġimpl": 3220,
      "Ġzebrafish": 3221,
      "Ġmanner": 3222,
      "Ġconnection": 3223,
      "Ġdetermined": 3224,
      "##rence": 3225,
      "Ġide": 3226,
      "Ġcareful": 3227,
      "ir": 3228,
      "rel": 3229,
      "term": 3230,
      "Ġmt": 3231,
      "Ġinde": 3232,
      "Ġtrunk": 3233,
      "##ica": 3234,
      "Ġeng": 3235,
      "Ġtermin": 3236,
      "Ġsour": 3237,
      "Ġgradient": 3238,
      "Ġnec": 3239,
      "Ġsuggested": 3240,
      "Ġminutes": 3241,
      "Ġhypot": 3242,
      "Ġcharacteristic": 3243,
      "Ġrabbit": 3244,
      "Ġchondroit": 3245,
      "Ġly": 3246,
      "Ġrepe": 3247,
      "Ġends": 3248,
      "36": 3249,
      "Ġneurob": 3250,
      "Ġoccup": 3251,
      "exp": 3252,
      "Ġfindings": 3253,
      "Ġsuccessful": 3254,
      "Ġperson": 3255,
      "Ġ1992": 3256,
      "Ġfollows": 3257,
      "Ġsheaths": 3258,
      "cent": 3259,
      "##ogenesis": 3260,
      "Ġdetermine": 3261,
      "Ġlaminin": 3262,
      "had": 3263,
      "##hr": 3264,
      "##ĠĠĠĠ": 3265,
      "Ġcommun": 3266,
      "37": 3267,
      "##asing": 3268,
      "##insic": 3269,
      "##line": 3270,
      "Ġdetected": 3271,
      "Ġsilver": 3272,
      "##ki": 3273,
      "Ġspine": 3274,
      "Ġcontraction": 3275,
      "Ġvertebr": 3276,
      "Ġanatomical": 3277,
      "##ha": 3278,
      "Ġafferent": 3279,
      "Ġmyelinated": 3280,
      "Ġhost": 3281,
      "Ġanatomy": 3282,
      "Ġthought": 3283,
      "rep": 3284,
      "##ze": 3285,
      "Ġoct": 3286,
      "Ġremain": 3287,
      "pre": 3288,
      "Ġphysical": 3289,
      "Ġcd": 3290,
      "##icles": 3291,
      "##anity": 3292,
      "Ġbasis": 3293,
      "Ġrevealed": 3294,
      "##nar": 3295,
      "Ġhorn": 3296,
      "##rome": 3297,
      "##vious": 3298,
      "##rought": 3299,
      "dif": 3300,
      "Ġdav": 3301,
      "##ett": 3302,
      "Ġglob": 3303,
      "Ġcalled": 3304,
      "##icle": 3305,
      "##acy": 3306,
      "Ġdiameter": 3307,
      "Ġsem": 3308,
      "Ġlip": 3309,
      "##yelination": 3310,
      "##land": 3311,
      "Ġsam": 3312,
      "Ġword": 3313,
      "##rown": 3314,
      "ac": 3315,
      "Ġjoh": 3316,
      "all": 3317,
      "Ġbranch": 3318,
      "Ġproperties": 3319,
      "##ien": 3320,
      "Ġtransport": 3321,
      "am": 3322,
      "ca": 3323,
      "Ġformer": 3324,
      "Ġpreparations": 3325,
      "Ġremoval": 3326,
      "##kn": 3327,
      "Ġacross": 3328,
      "Ġisolated": 3329,
      "Ġreach": 3330,
      "Ġdeficiency": 3331,
      "##acent": 3332,
      "Ġperhaps": 3333,
      "Ġorganism": 3334,
      "Ġextension": 3335,
      "Ġtro": 3336,
      "Ġ47": 3337,
      "Ġincub": 3338,
      "Ġgives": 3339,
      "##ateg": 3340,
      "fl": 3341,
      "Ġmedicine": 3342,
      "##artment": 3343,
      "Ġtubes": 3344,
      "Ġmacrophage": 3345,
      "Ġborder": 3346,
      "Ġhipp": 3347,
      "Ġartic": 3348,
      "##encephalon": 3349,
      "Ġcorresponding": 3350,
      "Ġcsp": 3351,
      "##imm": 3352,
      "Ġbeyond": 3353,
      "figs": 3354,
      "Ġenlar": 3355,
      "##mit": 3356,
      "Ġcombined": 3357,
      "Ġoccasionally": 3358,
      "Ġcornea": 3359,
      "dis": 3360,
      "Ġcolle": 3361,
      "es": 3362,
      "Ġcaps": 3363,
      "Ġnut": 3364,
      "tub": 3365,
      "Ġobl": 3366,
      "##auc": 3367,
      "more": 3368,
      "Ġapparently": 3369,
      "##88": 3370,
      "Ġown": 3371,
      "Ġknee": 3372,
      "##aryn": 3373,
      "Ġtransplanted": 3374,
      "Ġhighly": 3375,
      "##rin": 3376,
      "##ques": 3377,
      "##opath": 3378,
      "Ġsynt": 3379,
      "Ġped": 3380,
      "diseases": 3381,
      "##wing": 3382,
      "##nder": 3383,
      "Ġlobe": 3384,
      "bet": 3385,
      "Ġdys": 3386,
      "Ġbehavior": 3387,
      "Ġec": 3388,
      "Ġvers": 3389,
      "Ġsynaptic": 3390,
      "Ġyork": 3391,
      "Ġremains": 3392,
      "Ġ2009": 3393,
      "Ġchildren": 3394,
      "Ġpigment": 3395,
      "##::": 3396,
      "##ocamp": 3397,
      "Ġmajority": 3398,
      "Ġmen": 3399,
      "Ġgy": 3400,
      "Ġstates": 3401,
      "Ġtre": 3402,
      "Ġhall": 3403,
      "Ġtoward": 3404,
      "##orders": 3405,
      "Ġregenerated": 3406,
      "Ġbinding": 3407,
      "Ġclearly": 3408,
      "Ġaug": 3409,
      "Ġthalam": 3410,
      "Ġresemb": 3411,
      "Ġram": 3412,
      "general": 3413,
      "##ibly": 3414,
      "Ġphysiol": 3415,
      "system": 3416,
      "Ġful": 3417,
      "44": 3418,
      "Ġpal": 3419,
      "Ġtumors": 3420,
      "Ġpons": 3421,
      "Ġanest": 3422,
      "Ġproduc": 3423,
      "Ġarran": 3424,
      "Ġfull": 3425,
      "Ġnearly": 3426,
      "Ġproport": 3427,
      "dr": 3428,
      "qu": 3429,
      "Ġens": 3430,
      "Ġserv": 3431,
      "Ġimpulses": 3432,
      "Ġneurotroph": 3433,
      "##ined": 3434,
      "Ġfoot": 3435,
      "Ġvagus": 3436,
      "##65": 3437,
      "Ġlines": 3438,
      "Ġimages": 3439,
      "##hip": 3440,
      "##ational": 3441,
      "Ġchrom": 3442,
      "Ġcry": 3443,
      "Ġplay": 3444,
      "Ġrelatively": 3445,
      "Ġcerebellar": 3446,
      "##scs": 3447,
      "Ġconnected": 3448,
      "Ġche": 3449,
      "Ġimproved": 3450,
      "##itative": 3451,
      "Ġneuroc": 3452,
      "##iety": 3453,
      "##omic": 3454,
      "Ġorgans": 3455,
      "int": 3456,
      "Ġabnormal": 3457,
      "Ġproduction": 3458,
      "Ġcorrect": 3459,
      "##ifest": 3460,
      "##cium": 3461,
      "##iliary": 3462,
      "Ġvia": 3463,
      "Ġ1990": 3464,
      "Ġvan": 3465,
      "Ġ2010": 3466,
      "Ġinhibitors": 3467,
      "Ġtheory": 3468,
      "##att": 3469,
      "Ġresulting": 3470,
      "##let": 3471,
      "##acc": 3472,
      "##teen": 3473,
      "75": 3474,
      "supp": 3475,
      "any": 3476,
      "so": 3477,
      "Ġaspect": 3478,
      "##24": 3479,
      "Ġconduction": 3480,
      "##lish": 3481,
      "Ġpict": 3482,
      "Ġband": 3483,
      "##elt": 3484,
      "Ġextended": 3485,
      "Ġdendrit": 3486,
      "Ġult": 3487,
      "Ġhyster": 3488,
      "Ġrost": 3489,
      "##van": 3490,
      "hand": 3491,
      "Ġut": 3492,
      "##vi": 3493,
      "##untary": 3494,
      "##olution": 3495,
      "Ġexact": 3496,
      "##ament": 3497,
      "Ġcapacity": 3498,
      "case": 3499,
      "Ġngf": 3500,
      "##iven": 3501,
      "Ġsoon": 3502,
      "Ġlondon": 3503,
      "Ġproced": 3504,
      "Ġord": 3505,
      "##rows": 3506,
      "##ardi": 3507,
      "Ġadhesion": 3508,
      "pr": 3509,
      "Ġsud": 3510,
      "##agen": 3511,
      "Ġsystems": 3512,
      "Ġcorticospinal": 3513,
      "Ġhen": 3514,
      "##psy": 3515,
      "Ġfixed": 3516,
      "Ġprojection": 3517,
      "##atures": 3518,
      "Ġonce": 3519,
      "Ġspread": 3520,
      "Ġconnective": 3521,
      "symptoms": 3522,
      "Ġdoi": 3523,
      "Ġsay": 3524,
      "##ician": 3525,
      "Ġtong": 3526,
      "##nds": 3527,
      "Ġreactive": 3528,
      "Ġfinally": 3529,
      "##itory": 3530,
      "Ġwhose": 3531,
      "after": 3532,
      "Ġexer": 3533,
      "Ġpercent": 3534,
      "Ġsignal": 3535,
      "##71": 3536,
      "##ologic": 3537,
      "Ġapproxim": 3538,
      "##ga": 3539,
      "Ġtrophic": 3540,
      "Ġattacks": 3541,
      "Ġaav": 3542,
      "##resh": 3543,
      "##ety": 3544,
      "##acic": 3545,
      "Ġinterp": 3546,
      "Ġ2008": 3547,
      "Ġopinion": 3548,
      "##ellow": 3549,
      "their": 3550,
      "Ġsex": 3551,
      "Ġdrug": 3552,
      "Ġknowledge": 3553,
      "Ġsumm": 3554,
      "ml": 3555,
      "Ġidentified": 3556,
      "Ġmol": 3557,
      "Ġbrought": 3558,
      "Ġeight": 3559,
      "Ġchick": 3560,
      "##outh": 3561,
      "Ġinform": 3562,
      "Ġmigration": 3563,
      "##85": 3564,
      "Ġmi": 3565,
      "Ġaccess": 3566,
      "Ġtranscription": 3567,
      "she": 3568,
      "##63": 3569,
      "##ray": 3570,
      "Ġchap": 3571,
      "Ġdifferential": 3572,
      "Ġoligodendrocyte": 3573,
      "41": 3574,
      "Ġhard": 3575,
      "##ogl": 3576,
      "##ocyt": 3577,
      "Ġrespectively": 3578,
      "two": 3579,
      "sl": 3580,
      "Ġcome": 3581,
      "Ġabsent": 3582,
      "Ġ_": 3583,
      "##yer": 3584,
      "Ġblind": 3585,
      "Ġaged": 3586,
      "Ġ1914": 3587,
      "Ġros": 3588,
      "ĠÂ±": 3589,
      "##ched": 3590,
      "Ġfine": 3591,
      "Ġfrag": 3592,
      "Ġnormally": 3593,
      "Ġcytok": 3594,
      "rec": 3595,
      "##ream": 3596,
      "Ġasylum": 3597,
      "##ropri": 3598,
      "other": 3599,
      "Ġngr": 3600,
      "##omyelitis": 3601,
      "Ġclosely": 3602,
      "ed": 3603,
      "Ġregrowth": 3604,
      "Ġgfap": 3605,
      "acc": 3606,
      "##roy": 3607,
      "Ġinjections": 3608,
      "##mber": 3609,
      "Ġwang": 3610,
      "Ġho": 3611,
      "Ġ49": 3612,
      "57": 3613,
      "##xx": 3614,
      "Ġplasticity": 3615,
      "Ġadminist": 3616,
      "Ġmonke": 3617,
      "Ġassum": 3618,
      "Ġepithelium": 3619,
      "##ication": 3620,
      "Ġneurites": 3621,
      "Ġproportion": 3622,
      "##81": 3623,
      "##ember": 3624,
      "Ġlayers": 3625,
      "Ġcolumns": 3626,
      "Ġtop": 3627,
      "Ġtherapeutic": 3628,
      "##ops": 3629,
      "Ġportions": 3630,
      "Ġpublic": 3631,
      "Ġtraumatic": 3632,
      "Ġsubsequent": 3633,
      "Ġconjunctiv": 3634,
      "Ġcamp": 3635,
      "Ġbed": 3636,
      "##ope": 3637,
      "Ġdied": 3638,
      "##rupt": 3639,
      "Ġmedullary": 3640,
      "Ġmeningitis": 3641,
      "##itution": 3642,
      "##anges": 3643,
      "Ġ2001": 3644,
      "Ġradial": 3645,
      "Ġsulfate": 3646,
      "Ġ!": 3647,
      "Ġpie": 3648,
      "Ġfund": 3649,
      "Ġheld": 3650,
      "Ġinstance": 3651,
      "only": 3652,
      "##aring": 3653,
      "Ġrostral": 3654,
      "les": 3655,
      "Ġtrem": 3656,
      "Ġdispl": 3657,
      "Ġglauc": 3658,
      "##eculi": 3659,
      "Ġpsychiat": 3660,
      "Ġtectum": 3661,
      "Ġhippocamp": 3662,
      "##cific": 3663,
      "Ġlie": 3664,
      "Ġenc": 3665,
      "##ano": 3666,
      "Ġgli": 3667,
      "##emic": 3668,
      "Ġetc": 3669,
      "Ġretrog": 3670,
      "Ġphase": 3671,
      "Ġincreases": 3672,
      "Ġhemorrhage": 3673,
      "Ġfrequent": 3674,
      "Ġach": 3675,
      "Ġstain": 3676,
      "Ġadditional": 3677,
      "##sel": 3678,
      "##otion": 3679,
      "Ġ55": 3680,
      "191": 3681,
      "Ġmarrow": 3682,
      "Ġerr": 3683,
      "Ġtrigem": 3684,
      "Ġrod": 3685,
      "Ġpossibility": 3686,
      "Ġconvuls": 3687,
      "Ġocular": 3688,
      "##anied": 3689,
      "Ġcontinuous": 3690,
      "ref": 3691,
      "out": 3692,
      "Ġoc": 3693,
      "Ġconduct": 3694,
      "Ġmanifest": 3695,
      "Ġdegenerated": 3696,
      "Ġchor": 3697,
      "sc": 3698,
      "##rosis": 3699,
      "Ġdouble": 3700,
      "treat": 3701,
      "Ġremained": 3702,
      "##arc": 3703,
      "##aster": 3704,
      "Ġlate": 3705,
      "Ġ1989": 3706,
      "psych": 3707,
      "Ġlegs": 3708,
      "Ġprovided": 3709,
      "##73": 3710,
      "Ġfract": 3711,
      "##irect": 3712,
      "##plete": 3713,
      "Ġeasily": 3714,
      "Ġgradually": 3715,
      "brain": 3716,
      "Ġulnar": 3717,
      "Ġcontained": 3718,
      "Ġexperience": 3719,
      "Ġmentioned": 3720,
      "Ġster": 3721,
      "Ġcontinued": 3722,
      "Ġcircum": 3723,
      "##cence": 3724,
      "##mp": 3725,
      "neuro": 3726,
      "Ġelectrical": 3727,
      "Ġpublished": 3728,
      "Ġbundles": 3729,
      "##83": 3730,
      "##ators": 3731,
      "Ġvas": 3732,
      "Ġcontrols": 3733,
      "Ġgave": 3734,
      "Ġavail": 3735,
      "Ġdiscussion": 3736,
      "Ġindeed": 3737,
      "sur": 3738,
      "Ġweakness": 3739,
      "mar": 3740,
      "Ġresist": 3741,
      "Ġdamaged": 3742,
      "hem": 3743,
      "##lying": 3744,
      "Ġneut": 3745,
      "Ġiii": 3746,
      "will": 3747,
      "Ġarise": 3748,
      "Ġwalk": 3749,
      "##idence": 3750,
      "##generation": 3751,
      "first": 3752,
      "##ble": 3753,
      "Ġhind": 3754,
      "Ġexposed": 3755,
      "1999": 3756,
      "Ġconclusion": 3757,
      "Ġimplant": 3758,
      "comp": 3759,
      "##alu": 3760,
      "Ġwes": 3761,
      "##char": 3762,
      "Ġseparated": 3763,
      "gl": 3764,
      "##aped": 3765,
      "Ġobvious": 3766,
      "Ġpreced": 3767,
      "sens": 3768,
      "Ġgly": 3769,
      "Ġmyelination": 3770,
      "Ġattack": 3771,
      "Ġreports": 3772,
      "Ġmembranes": 3773,
      "Ġcircul": 3774,
      "Ġexcit": 3775,
      "Ġregarded": 3776,
      "Ġ),": 3777,
      "nervous": 3778,
      "##abeled": 3779,
      "##rated": 3780,
      "co": 3781,
      "##uces": 3782,
      "inter": 3783,
      "Ġplant": 3784,
      "cereb": 3785,
      "##more": 3786,
      "##istry": 3787,
      "Ġbase": 3788,
      "Ġlam": 3789,
      "##aking": 3790,
      "Ġmoreover": 3791,
      "Ġpoor": 3792,
      "##eps": 3793,
      "Ġprogressive": 3794,
      "##rn": 3795,
      "##atous": 3796,
      "Ġwid": 3797,
      "Ġvi": 3798,
      "##alled": 3799,
      "##âĢĻ": 3800,
      "Ġrepl": 3801,
      "Ġfem": 3802,
      "Ġupreg": 3803,
      "Ġsinus": 3804,
      "Ġmainly": 3805,
      "##fe": 3806,
      "Ġbu": 3807,
      "##ander": 3808,
      "Ġsurge": 3809,
      "Ġcavity": 3810,
      "ro": 3811,
      "##ican": 3812,
      "##ulate": 3813,
      "##ots": 3814,
      "Ġrelative": 3815,
      "such": 3816,
      "##aches": 3817,
      "Ġsuperficial": 3818,
      "Ġrepeated": 3819,
      "Ġdistingu": 3820,
      "Ġcapsule": 3821,
      "Ġpolar": 3822,
      "##anz": 3823,
      "bec": 3824,
      "##43": 3825,
      "Ġcontains": 3826,
      "Ġ1988": 3827,
      "Ġtet": 3828,
      "Ġgenerated": 3829,
      "Ġundergo": 3830,
      "##olds": 3831,
      "Ġrarely": 3832,
      "cor": 3833,
      "very": 3834,
      "Ġfood": 3835,
      "Ġinitial": 3836,
      "Ġfix": 3837,
      "Ġlocomotor": 3838,
      "disease": 3839,
      "##het": 3840,
      "Ġpbs": 3841,
      "Ġaltern": 3842,
      "Ġkey": 3843,
      "Ġtongue": 3844,
      "##41": 3845,
      "##gi": 3846,
      "âĢĿ": 3847,
      "Ġblue": 3848,
      "Ġreactions": 3849,
      "Ġfluores": 3850,
      "##az": 3851,
      "##67": 3852,
      "##lement": 3853,
      "##ressive": 3854,
      "##ney": 3855,
      "Ġsurrounding": 3856,
      "##uous": 3857,
      "Ġ80": 3858,
      "Ġimmune": 3859,
      "##brid": 3860,
      "Ġcalcium": 3861,
      "##ference": 3862,
      "Ġepid": 3863,
      "Ġemployed": 3864,
      "Ġthoracic": 3865,
      "Ġpyramidal": 3866,
      "##wise": 3867,
      "Ġmature": 3868,
      "##ulations": 3869,
      "into": 3870,
      "Ġdrg": 3871,
      "Ġsion": 3872,
      "Ġopen": 3873,
      "Ġmark": 3874,
      "Ġlu": 3875,
      "Ġtowards": 3876,
      "Ġglaucoma": 3877,
      "Ġdensity": 3878,
      "Ġlocated": 3879,
      "Ġapril": 3880,
      "Ġestim": 3881,
      "Ġproduct": 3882,
      "##met": 3883,
      "Ġjuly": 3884,
      "Ġlesioned": 3885,
      "Ġsuggests": 3886,
      "Ġlabeling": 3887,
      "Ġphenot": 3888,
      "Ġsurgical": 3889,
      "hy": 3890,
      "Ġciliary": 3891,
      "Ġwar": 3892,
      "##ectin": 3893,
      "Ġatax": 3894,
      "Ġkinase": 3895,
      "Ġcold": 3896,
      "##22": 3897,
      "##enced": 3898,
      "Ġmind": 3899,
      "Ġestablished": 3900,
      "Ġtoxic": 3901,
      "Ġbeginning": 3902,
      "##rum": 3903,
      "Ġfer": 3904,
      "att": 3905,
      "##legia": 3906,
      "Ġforce": 3907,
      "Ġmammals": 3908,
      "Ġadministration": 3909,
      "Ġinstances": 3910,
      "Ġcultured": 3911,
      "Ġinfiltration": 3912,
      "##iral": 3913,
      "Ġactivated": 3914,
      "Ġsen": 3915,
      "##izing": 3916,
      "Ġprep": 3917,
      "Ġsides": 3918,
      "Ġlent": 3919,
      "Ġgoogle": 3920,
      "Ġsudden": 3921,
      "em": 3922,
      "##phor": 3923,
      "##abol": 3924,
      "Ġaccept": 3925,
      "##imer": 3926,
      "Ġsoci": 3927,
      "Ġevident": 3928,
      "Ġconsists": 3929,
      "Ġneurology": 3930,
      "##oor": 3931,
      "Ġlin": 3932,
      "Ġcomparison": 3933,
      "##89": 3934,
      "##61": 3935,
      "##ache": 3936,
      "Ġglass": 3937,
      "treated": 3938,
      "Ġau": 3939,
      "##fected": 3940,
      "also": 3941,
      "Ġfrontal": 3942,
      "Ġusual": 3943,
      "Ġdifficulty": 3944,
      "Ġben": 3945,
      "Ġbur": 3946,
      "Ġproject": 3947,
      "Ġfiss": 3948,
      "##ibr": 3949,
      "Ġmodels": 3950,
      "Ġdevelopmental": 3951,
      "Ġlocalization": 3952,
      "Ġinformation": 3953,
      "190": 3954,
      "Ġscaff": 3955,
      "Ġfigures": 3956,
      "Ġtrauma": 3957,
      "##eculiar": 3958,
      "##nosis": 3959,
      "Ġorganic": 3960,
      "Ġmorphology": 3961,
      "53": 3962,
      "##equ": 3963,
      "##da": 3964,
      "##ken": 3965,
      "##ontaneous": 3966,
      "Ġcomponents": 3967,
      "Ġearlier": 3968,
      "##orph": 3969,
      "Ġunderstand": 3970,
      "Ġproblem": 3971,
      "Ġassess": 3972,
      "Ġdependent": 3973,
      "tr": 3974,
      "Ġ51": 3975,
      "##yelinated": 3976,
      "Ġindicates": 3977,
      "type": 3978,
      "Ġchen": 3979,
      "##ister": 3980,
      "##rogen": 3981,
      "specific": 3982,
      "Ġana": 3983,
      "Ġartery": 3984,
      "des": 3985,
      "dependent": 3986,
      "inv": 3987,
      "Ġinhibitor": 3988,
      "Ġprovide": 3989,
      "Ġverteb": 3990,
      "##selves": 3991,
      "Ġnasal": 3992,
      "Ġjo": 3993,
      "Ġtrk": 3994,
      "Ġwestern": 3995,
      "##60": 3996,
      "##imal": 3997,
      "ins": 3998,
      "Ġblack": 3999,
      "Ġintrinsic": 4000,
      "Ġpicture": 4001,
      "Ġips": 4002,
      "193": 4003,
      "Ġswelling": 4004,
      "Ġneuropath": 4005,
      "##apt": 4006,
      "##45": 4007,
      "##75": 4008,
      "Ġappropri": 4009,
      "##rition": 4010,
      "##inc": 4011,
      "Ġpns": 4012,
      "##illar": 4013,
      "Ġtransplants": 4014,
      "paralysis": 4015,
      "do": 4016,
      "four": 4017,
      "Ġrect": 4018,
      "##oreact": 4019,
      "Ġapproach": 4020,
      "Ġbrach": 4021,
      "##69": 4022,
      "##rest": 4023,
      "##atum": 4024,
      "Ġvert": 4025,
      "its": 4026,
      "##iological": 4027,
      "##79": 4028,
      "Ġfair": 4029,
      "##istics": 4030,
      "##ext": 4031,
      "##80": 4032,
      "figure": 4033,
      "neur": 4034,
      "Ġadded": 4035,
      "##gic": 4036,
      "Ġneurogl": 4037,
      "Ġmeasure": 4038,
      "Ġfingers": 4039,
      "can": 4040,
      "Ġget": 4041,
      "Ġstated": 4042,
      "##thing": 4043,
      "Ġje": 4044,
      "Ġfacts": 4045,
      "Ġapopt": 4046,
      "Ġna": 4047,
      "Ġthir": 4048,
      "Ġdescending": 4049,
      "##romb": 4050,
      "Ġperf": 4051,
      "Ġschool": 4052,
      "1994": 4053,
      "##ergic": 4054,
      "Ġze": 4055,
      "Ġ2006": 4056,
      "Ġmoder": 4057,
      "Ġdescri": 4058,
      "Ġled": 4059,
      "Ġ75": 4060,
      "Ġelev": 4061,
      "##awa": 4062,
      "Ġpast": 4063,
      "##imb": 4064,
      "Ġanal": 4065,
      "Ġrecorded": 4066,
      "60": 4067,
      "Ġfeb": 4068,
      "Ġembryo": 4069,
      "Ġlaboratory": 4070,
      "treatment": 4071,
      "##jal": 4072,
      "##iced": 4073,
      "##abil": 4074,
      "Ġ2002": 4075,
      "Ġgreen": 4076,
      "##70": 4077,
      "##ungen": 4078,
      "Ġker": 4079,
      "Ġkid": 4080,
      "Ġdesign": 4081,
      "Ġsuggesting": 4082,
      "Ġfacil": 4083,
      "##ead": 4084,
      "##ani": 4085,
      "Ġrt": 4086,
      "##allel": 4087,
      "Ġroy": 4088,
      "Ġmuscul": 4089,
      "Ġseemed": 4090,
      "Ġgyrus": 4091,
      "side": 4092,
      "Ġbon": 4093,
      "Ġyou": 4094,
      "Ġascending": 4095,
      "Ġig": 4096,
      "##ira": 4097,
      "##ini": 4098,
      "Ġthink": 4099,
      "Ġ2014": 4100,
      "Ġexplan": 4101,
      "##oe": 4102,
      "Ġments": 4103,
      "Ġcontain": 4104,
      "Ġhealthy": 4105,
      "##ritis": 4106,
      "##erian": 4107,
      "##itized": 4108,
      "Ġliter": 4109,
      "Ġgerm": 4110,
      "##oderm": 4111,
      "Ġelectro": 4112,
      "Ġprolong": 4113,
      "oper": 4114,
      "##ales": 4115,
      "##eling": 4116,
      "Ġlog": 4117,
      "Ġgast": 4118,
      "Ġ70": 4119,
      "70": 4120,
      "Ġgreatly": 4121,
      "Ġenhanced": 4122,
      "Ġprofess": 4123,
      "result": 4124,
      "Ġnit": 4125,
      "Ġbeg": 4126,
      "Ġconc": 4127,
      "Ġperman": 4128,
      "##ception": 4129,
      "Ġstrateg": 4130,
      "##ova": 4131,
      "Ġgrey": 4132,
      "Ġlamina": 4133,
      "Ġfully": 4134,
      "Ġhr": 4135,
      "##lected": 4136,
      "##ires": 4137,
      "Ġshall": 4138,
      "##rospinal": 4139,
      "Ġhemisphere": 4140,
      "Ġocul": 4141,
      "##isation": 4142,
      "Ġseven": 4143,
      "mediated": 4144,
      "fe": 4145,
      "Ġcame": 4146,
      "Ġpten": 4147,
      "Ġcylinder": 4148,
      "Ġiv": 4149,
      "##side": 4150,
      "##oles": 4151,
      "Ġimpossible": 4152,
      "##bert": 4153,
      "Ġpure": 4154,
      "Ġlet": 4155,
      "##ode": 4156,
      "Ġsensibility": 4157,
      "Ġkept": 4158,
      "Ġadjacent": 4159,
      "##rotein": 4160,
      "Ġdark": 4161,
      "Ġliver": 4162,
      "##iding": 4163,
      "Ġspasm": 4164,
      "Ġimprove": 4165,
      "imp": 4166,
      "Ġperfect": 4167,
      "those": 4168,
      "Ġaccum": 4169,
      "##aging": 4170,
      "##ressing": 4171,
      "Ġ59": 4172,
      "Ġsource": 4173,
      "##come": 4174,
      "Ġpap": 4175,
      "##itude": 4176,
      "Ġchapter": 4177,
      "Ġconclud": 4178,
      "##etal": 4179,
      "Ġretinas": 4180,
      "organ": 4181,
      "ag": 4182,
      "##64": 4183,
      "Ġfever": 4184,
      "Ġradiation": 4185,
      "Ġinvestigation": 4186,
      "Ġmesen": 4187,
      "Ġchondroitin": 4188,
      "Ġfin": 4189,
      "Ġstart": 4190,
      "Ġevalu": 4191,
      "##val": 4192,
      "Ġaur": 4193,
      "##igid": 4194,
      "Ġnam": 4195,
      "##raum": 4196,
      "Ġextra": 4197,
      "Ġspecies": 4198,
      "Ġdestruction": 4199,
      "Ġepilepsy": 4200,
      "Ġreduction": 4201,
      "Ġspontaneous": 4202,
      "Ġchann": 4203,
      "Ġair": 4204,
      "##uture": 4205,
      "##aving": 4206,
      "Ġdaily": 4207,
      "ii": 4208,
      "Ġfrog": 4209,
      "Ġsatis": 4210,
      "##erson": 4211,
      "Ġ2007": 4212,
      "##aments": 4213,
      "Ġsynd": 4214,
      "Ġdisorders": 4215,
      "Ġrepro": 4216,
      "Ġfeatures": 4217,
      "Ġnuclear": 4218,
      "Ġarteries": 4219,
      "Ġcentre": 4220,
      "Ġastrocyte": 4221,
      "##oscop": 4222,
      "Ġdement": 4223,
      "Ġoccurrence": 4224,
      "Ġspeech": 4225,
      "called": 4226,
      "##self": 4227,
      "Ġmel": 4228,
      "##anglion": 4229,
      "Ġincreasing": 4230,
      "Ġtakes": 4231,
      "2000": 4232,
      "Ġnatl": 4233,
      "Ġinclude": 4234,
      "Ġliving": 4235,
      "##uration": 4236,
      "##fined": 4237,
      "Ġdestroy": 4238,
      "Ġneck": 4239,
      "Ġduration": 4240,
      "Ġminute": 4241,
      "Ġallowed": 4242,
      "Ġid": 4243,
      "Ġven": 4244,
      "show": 4245,
      "ret": 4246,
      "time": 4247,
      "Ġaway": 4248,
      "##inent": 4249,
      "Ġsubc": 4250,
      "##ices": 4251,
      "Ġalb": 4252,
      "Ġrich": 4253,
      "Ġ().": 4254,
      "Ġchlor": 4255,
      "##aren": 4256,
      "##ued": 4257,
      "Ġdose": 4258,
      "Ġtho": 4259,
      "##iber": 4260,
      "Ġrequire": 4261,
      "gra": 4262,
      "##aired": 4263,
      "##lear": 4264,
      "infl": 4265,
      "Ġ53": 4266,
      "Ġrespond": 4267,
      "Ġquantitative": 4268,
      "Ġavailable": 4269,
      "sm": 4270,
      "##lications": 4271,
      "Ġpunct": 4272,
      "##acks": 4273,
      "##neur": 4274,
      "Ġpossibly": 4275,
      "Ġ1987": 4276,
      "Ġsignificance": 4277,
      "Ġchemical": 4278,
      "Ġcyst": 4279,
      "Ġdogs": 4280,
      "kn": 4281,
      "Ġmeet": 4282,
      "Ġvel": 4283,
      "##ards": 4284,
      "Ġcytoplasm": 4285,
      "Ġurine": 4286,
      "55": 4287,
      "sim": 4288,
      "##nam": 4289,
      "Ġparallel": 4290,
      "Ġrob": 4291,
      "Ġthemselves": 4292,
      "Ġsubstrate": 4293,
      "end": 4294,
      "Ġreal": 4295,
      "49": 4296,
      "##oun": 4297,
      "Ġfoc": 4298,
      "##ends": 4299,
      "Ġconfirmed": 4300,
      "Ġba": 4301,
      "Ġabsol": 4302,
      "Ġcorrel": 4303,
      "Ġstrongly": 4304,
      "##rict": 4305,
      "Ġseparate": 4306,
      "rem": 4307,
      "##off": 4308,
      "##yst": 4309,
      "##ca": 4310,
      "##mid": 4311,
      "Ġlang": 4312,
      "##uth": 4313,
      "Ġbegan": 4314,
      "Ġsharp": 4315,
      "Ġobtain": 4316,
      "Ġevents": 4317,
      "Ġwilli": 4318,
      "Ġtrain": 4319,
      "Ġhu": 4320,
      "##iment": 4321,
      "Ġsupported": 4322,
      "Ġimmediate": 4323,
      "labeled": 4324,
      "Ġpeculiar": 4325,
      "##resents": 4326,
      "Ġtransgen": 4327,
      "Ġacqu": 4328,
      "Ġleads": 4329,
      "Ġmerely": 4330,
      "dep": 4331,
      "ob": 4332,
      "Ġopt": 4333,
      "Ġpals": 4334,
      "Ġhab": 4335,
      "Ġhome": 4336,
      "Ġgeneration": 4337,
      "Ġib": 4338,
      "Ġmetabol": 4339,
      "Ġhelp": 4340,
      "##gely": 4341,
      "Ġvom": 4342,
      "Ġroom": 4343,
      "Ġvitre": 4344,
      "Ġdecreased": 4345,
      "Ġbelieve": 4346,
      "##ument": 4347,
      "Ġtransected": 4348,
      "Ġadvanced": 4349,
      "ĠÎ¼": 4350,
      "gfp": 4351,
      "##cin": 4352,
      "Ġcu": 4353,
      "Ġbound": 4354,
      "##rox": 4355,
      "Ġproved": 4356,
      "Ġphysician": 4357,
      "Ġcapable": 4358,
      "Ġtendency": 4359,
      "Ġdecrease": 4360,
      "Ġpenet": 4361,
      "##68": 4362,
      "Ġcontent": 4363,
      "Ġremark": 4364,
      "Ġinvolvement": 4365,
      "Ġpept": 4366,
      "Ġaccompanied": 4367,
      "Ġneigh": 4368,
      "Ġcomposed": 4369,
      "Ġbiochem": 4370,
      "1995": 4371,
      "Ġinsanity": 4372,
      "Ġpractically": 4373,
      "Ġinduce": 4374,
      "##atin": 4375,
      "Ġefferent": 4376,
      "Ġdescrib": 4377,
      "Ġmechanical": 4378,
      "Ġdirected": 4379,
      "Ġfifth": 4380,
      "51": 4381,
      "Ġexcess": 4382,
      "Ġrule": 4383,
      "##irm": 4384,
      "Ġvariety": 4385,
      "Ġwalls": 4386,
      "Ġdisturbance": 4387,
      "most": 4388,
      "##reci": 4389,
      "Ġground": 4390,
      "Ġvoluntary": 4391,
      "develop": 4392,
      "Ġspecim": 4393,
      "Ġtubercul": 4394,
      "Ġsqu": 4395,
      "Ġorbit": 4396,
      "##ipolar": 4397,
      "##ntf": 4398,
      "Ġdepartment": 4399,
      "##uffer": 4400,
      "Ġinteractions": 4401,
      "Ġphenomena": 4402,
      "present": 4403,
      "##zy": 4404,
      "##ongata": 4405,
      "Ġbasic": 4406,
      "Ġreadily": 4407,
      "Ġvarying": 4408,
      "Ġapproximately": 4409,
      "##ontal": 4410,
      "##ada": 4411,
      "through": 4412,
      "Ġ61": 4413,
      "Ġprognosis": 4414,
      "##missive": 4415,
      "##bp": 4416,
      "Ġchiefly": 4417,
      "Ġinstitute": 4418,
      "process": 4419,
      "Ġwrist": 4420,
      "##gment": 4421,
      "Ġparap": 4422,
      "Ġextract": 4423,
      "1998": 4424,
      "Ġliterature": 4425,
      "##ele": 4426,
      "Ġves": 4427,
      "Ġcham": 4428,
      "Ġexpected": 4429,
      "Ġphag": 4430,
      "##iplegia": 4431,
      "Ġcombination": 4432,
      "Ġprobable": 4433,
      "Ġmembers": 4434,
      "Ġcritical": 4435,
      "Ġinnervation": 4436,
      "Ġneurobiol": 4437,
      "Ġwords": 4438,
      "tiss": 4439,
      "##74": 4440,
      "Ġpet": 4441,
      "##organ": 4442,
      "Ġart": 4443,
      "##reng": 4444,
      "Ġassist": 4445,
      "car": 4446,
      "Ġtl": 4447,
      "##ements": 4448,
      "Ġcompression": 4449,
      "##ungs": 4450,
      "Ġequal": 4451,
      "Ġfavor": 4452,
      "day": 4453,
      "path": 4454,
      "##heres": 4455,
      "##amine": 4456,
      "##oper": 4457,
      "Ġpharm": 4458,
      "##neum": 4459,
      "motor": 4460,
      "##inger": 4461,
      "##duce": 4462,
      "Ġtested": 4463,
      "Ġsyphilitic": 4464,
      "Ġpreparation": 4465,
      "Ġprogenitor": 4466,
      "between": 4467,
      "##work": 4468,
      "##omized": 4469,
      "Ġpatter": 4470,
      "Ġsmith": 4471,
      "should": 4472,
      "el": 4473,
      "##ancy": 4474,
      "##ocl": 4475,
      "Ġsusp": 4476,
      "my": 4477,
      "Ġmild": 4478,
      "##ari": 4479,
      "Ġcords": 4480,
      "Ġliu": 4481,
      "Ġdementia": 4482,
      "ax": 4483,
      "Ġpan": 4484,
      "Ġfran": 4485,
      "Ġgross": 4486,
      "##umin": 4487,
      "Ġcommit": 4488,
      "##phthalm": 4489,
      "Ġexistence": 4490,
      "lar": 4491,
      "##we": 4492,
      "##ories": 4493,
      "##asis": 4494,
      "Ġphil": 4495,
      "Ġavoid": 4496,
      "##pr": 4497,
      "##ball": 4498,
      "Ġreached": 4499,
      "Ġrub": 4500,
      "##cipital": 4501,
      "##uclear": 4502,
      "Ġbridge": 4503,
      "condition": 4504,
      "Ġ?": 4505,
      "##uj": 4506,
      "##cet": 4507,
      "##cia": 4508,
      "Ġcolor": 4509,
      "mm": 4510,
      "Ġcst": 4511,
      "Ġbron": 4512,
      "Ġglyc": 4513,
      "Ġanalyzed": 4514,
      "Ġnatural": 4515,
      "Ġconsequ": 4516,
      "Ġlat": 4517,
      "##agram": 4518,
      "##izes": 4519,
      "Ġdura": 4520,
      "ĠĠĠĠĠĠĠĠ": 4521,
      "Ġsituated": 4522,
      "Ġconclusions": 4523,
      "Ġretrograde": 4524,
      "long": 4525,
      "Ġsites": 4526,
      "Ġoperations": 4527,
      "Ġperiods": 4528,
      "Ġgalvan": 4529,
      ",.": 4530,
      "##iomyelitis": 4531,
      "Ġdrop": 4532,
      "Ġ90": 4533,
      "Ġmeasured": 4534,
      "Ġplasma": 4535,
      "Ġpassed": 4536,
      "Ġthalamus": 4537,
      "Ġprepared": 4538,
      "Ġexplanation": 4539,
      "##ky": 4540,
      "Ġdelayed": 4541,
      "Ġextremities": 4542,
      "Ġdisturbances": 4543,
      "Ġproteoglycans": 4544,
      "if": 4545,
      "op": 4546,
      "##49": 4547,
      "Ġpia": 4548,
      "Ġ63": 4549,
      "col": 4550,
      "##42": 4551,
      "##¿½": 4552,
      "##ishes": 4553,
      "Ġnone": 4554,
      "##chr": 4555,
      "Ġquad": 4556,
      "##eal": 4557,
      "##ham": 4558,
      "##ats": 4559,
      "Ġwide": 4560,
      "Ġforward": 4561,
      "##ococ": 4562,
      "##tee": 4563,
      "ĠâĢĺ": 4564,
      "Ġaccur": 4565,
      "Ġauto": 4566,
      "how": 4567,
      "Ġexpos": 4568,
      "##rier": 4569,
      "##ammatory": 4570,
      "Ġenhance": 4571,
      "Ġpercentage": 4572,
      "Ġglycop": 4573,
      "Ġmesenchym": 4574,
      "est": 4575,
      "Ġfocal": 4576,
      "Ġdoses": 4577,
      "Ġsignals": 4578,
      "##ascin": 4579,
      "injury": 4580,
      "Ġtabes": 4581,
      "Ġexerc": 4582,
      "press": 4583,
      "##bar": 4584,
      "Ġfigs": 4585,
      "Ġtumour": 4586,
      "##ophys": 4587,
      "Ġzhang": 4588,
      "been": 4589,
      "##rig": 4590,
      "##alytic": 4591,
      "Ġmuc": 4592,
      "##ellar": 4593,
      "Ġimage": 4594,
      "Ġcontribute": 4595,
      "ap": 4596,
      "##50": 4597,
      "Ġpell": 4598,
      "##87": 4599,
      "##asp": 4600,
      "Ġnutrition": 4601,
      "##hl": 4602,
      "##atology": 4603,
      "1997": 4604,
      "Ġvolume": 4605,
      "Ġtrigeminal": 4606,
      "Ġjune": 4607,
      "fibers": 4608,
      "Ġsemaphor": 4609,
      "ey": 4610,
      "Ġencephal": 4611,
      "Ġnin": 4612,
      "Ġpron": 4613,
      "##sh": 4614,
      "##bits": 4615,
      "Ġbal": 4616,
      "Ġlies": 4617,
      "##oto": 4618,
      "Ġ2004": 4619,
      "Ġsupplied": 4620,
      "Ġpossess": 4621,
      "Ġhoriz": 4622,
      "Ġhypothesis": 4623,
      "Ġincubated": 4624,
      "##burg": 4625,
      "Ġther": 4626,
      "Ġnar": 4627,
      "Ġmicrot": 4628,
      "Ġmicroscope": 4629,
      "reflex": 4630,
      "##oo": 4631,
      "Ġdegenerative": 4632,
      "char": 4633,
      "Ġfurthermore": 4634,
      "59": 4635,
      "ep": 4636,
      "follow": 4637,
      "##onia": 4638,
      "being": 4639,
      "Ġcircu": 4640,
      "Ġfront": 4641,
      "Ġconcerned": 4642,
      "Ġsle": 4643,
      "##itable": 4644,
      "Ġbilateral": 4645,
      "Ġproceed": 4646,
      "##roma": 4647,
      "Ġlee": 4648,
      "Ġconscious": 4649,
      "Ġprior": 4650,
      "phys": 4651,
      "Ġstriking": 4652,
      "Ġfissure": 4653,
      "##orb": 4654,
      "Ġeg": 4655,
      "##elle": 4656,
      "##alyses": 4657,
      "Ġappropriate": 4658,
      "Ġfacilit": 4659,
      "Ġ\\": 4660,
      "Ġbrown": 4661,
      "Ġincom": 4662,
      "##ogenic": 4663,
      "Ġesc": 4664,
      "Ġadvant": 4665,
      "Ġneurological": 4666,
      "Ġelongation": 4667,
      "well": 4668,
      "Ġunable": 4669,
      "##pitals": 4670,
      "Ġincluded": 4671,
      "Ġresponsible": 4672,
      "Ġfinger": 4673,
      "80": 4674,
      "point": 4675,
      "Ġtor": 4676,
      "Ġcertainly": 4677,
      "##stein": 4678,
      "er": 4679,
      "##itch": 4680,
      "Ġresulted": 4681,
      "use": 4682,
      "Ġdef": 4683,
      "Ġspi": 4684,
      "Ġeyeball": 4685,
      "##roid": 4686,
      "##ayo": 4687,
      "Ġcrossed": 4688,
      "Ġhypert": 4689,
      "Ġpopulation": 4690,
      "ïĿ": 4691,
      "Ġarg": 4692,
      "Ġcla": 4693,
      "Ġendogenous": 4694,
      "1996": 4695,
      "Ġimmunoreact": 4696,
      "Ġpassing": 4697,
      "Ġbundle": 4698,
      "work": 4699,
      "Ġtib": 4700,
      "Ġcardi": 4701,
      "Ġstre": 4702,
      "##ecting": 4703,
      "Ġnovel": 4704,
      "Ġrecon": 4705,
      "Ġembryos": 4706,
      "mon": 4707,
      "many": 4708,
      "##icate": 4709,
      "##ivery": 4710,
      "Ġcajal": 4711,
      "Ġagu": 4712,
      "Ġpostn": 4713,
      "Ġque": 4714,
      "Ġpupils": 4715,
      "Ġestablish": 4716,
      "##cn": 4717,
      "Ġcast": 4718,
      "Ġbru": 4719,
      "##ocular": 4720,
      "Ġdisorder": 4721,
      "Ġextending": 4722,
      "Ġtargets": 4723,
      "Ġecm": 4724,
      "##hood": 4725,
      "Ġta": 4726,
      "Ġmd": 4727,
      "Ġbes": 4728,
      "Ġthromb": 4729,
      "Ġelse": 4730,
      "Ġsomatic": 4731,
      "Ġphosphory": 4732,
      "Ġoblongata": 4733,
      "##rees": 4734,
      "Ġru": 4735,
      "Ġcutaneous": 4736,
      "Ġgranules": 4737,
      "upon": 4738,
      "Ġordinary": 4739,
      "##77": 4740,
      "##kin": 4741,
      "Ġaud": 4742,
      "Ġms": 4743,
      "Ġml": 4744,
      "Ġmur": 4745,
      "##itely": 4746,
      "Ġconver": 4747,
      "Ġaden": 4748,
      "Ġlargely": 4749,
      "Ġexplants": 4750,
      "Ġreferences": 4751,
      "Ġtenascin": 4752,
      "##zym": 4753,
      "1993": 4754,
      "changes": 4755,
      "Ġmaking": 4756,
      "Ġforming": 4757,
      "Ġneurones": 4758,
      "##sen": 4759,
      "##44": 4760,
      "Ġinoc": 4761,
      "Ġfuture": 4762,
      "Ġtests": 4763,
      "consider": 4764,
      "##ober": 4765,
      "##itre": 4766,
      "Ġlac": 4767,
      "Ġans": 4768,
      "Ġran": 4769,
      "Ġetiology": 4770,
      "Ġunilateral": 4771,
      "Ġdepends": 4772,
      "Ġprecurs": 4773,
      "Ġsociety": 4774,
      "Ġseiz": 4775,
      "Ġneurof": 4776,
      "Ġ42": 4777,
      "##ermann": 4778,
      "Ġfibroblasts": 4779,
      "Ġchoroid": 4780,
      "Ġfelt": 4781,
      "##clus": 4782,
      "Ġremaining": 4783,
      "Ġneuroglia": 4784,
      "Ġthirty": 4785,
      "],": 4786,
      "Ġstreng": 4787,
      "Ġobst": 4788,
      "Ġperiphery": 4789,
      "##cil": 4790,
      "Ġrein": 4791,
      "Ġgel": 4792,
      "##tero": 4793,
      "Ġ65": 4794,
      "exper": 4795,
      "found": 4796,
      "right": 4797,
      "sec": 4798,
      "Ġmyelitis": 4799,
      "Ġunited": 4800,
      "Ġoccurring": 4801,
      "Ġdon": 4802,
      "##enter": 4803,
      "Ġrigid": 4804,
      "Ġrot": 4805,
      "Ġagg": 4806,
      "##adder": 4807,
      "##oneur": 4808,
      "Ġzu": 4809,
      "Ġviscer": 4810,
      "Ġcharacterized": 4811,
      "Ġbehind": 4812,
      "Ġ]": 4813,
      "Ġnothing": 4814,
      "Ġlimit": 4815,
      "Ġpn": 4816,
      "##uber": 4817,
      "Ġcompl": 4818,
      "Ġrepresents": 4819,
      "Ġmolecule": 4820,
      "Ġbronch": 4821,
      ":/": 4822,
      "Ġelic": 4823,
      "##ellen": 4824,
      "##agon": 4825,
      "Ġactual": 4826,
      "Ġuseful": 4827,
      "Ġinduction": 4828,
      "Ġpatterns": 4829,
      "##uals": 4830,
      "Ġaus": 4831,
      "Ġmale": 4832,
      "##aspinal": 4833,
      "Ġmediated": 4834,
      "Ġregulated": 4835,
      "Ġdelivery": 4836,
      "Ġexception": 4837,
      "Ġneuroprot": 4838,
      "Ġdiffuse": 4839,
      "Ġirritation": 4840,
      "##ls": 4841,
      "##66": 4842,
      "Ġcop": 4843,
      "Ġappar": 4844,
      "Ġmedi": 4845,
      "##ricted": 4846,
      "##mic": 4847,
      "Ġble": 4848,
      "Ġstrain": 4849,
      "##ught": 4850,
      "Ġ2005": 4851,
      "Ġinsane": 4852,
      "Ġdendrites": 4853,
      "Ġfr": 4854,
      "Ġneph": 4855,
      "##ama": 4856,
      "Ġunion": 4857,
      "##ronectin": 4858,
      "Ġattrib": 4859,
      "Ġaguayo": 4860,
      "##antly": 4861,
      "##uck": 4862,
      "##ancet": 4863,
      "##licated": 4864,
      "Ġcarb": 4865,
      "Ġpoliomyelitis": 4866,
      "Ġdans": 4867,
      "##ote": 4868,
      "Ġneurogen": 4869,
      "Ġneuroblast": 4870,
      "Ġapoptosis": 4871,
      "61": 4872,
      "go": 4873,
      "Ġpt": 4874,
      "Ġnoticed": 4875,
      "Ġaffecting": 4876,
      "Ġlocalized": 4877,
      "Ġdemonstrate": 4878,
      "Ġcam": 4879,
      "Ġwil": 4880,
      "Ġfas": 4881,
      "Ġdas": 4882,
      "Ġkl": 4883,
      "##exp": 4884,
      "Ġiris": 4885,
      "Ġsubstant": 4886,
      "Ġattached": 4887,
      "Ġneurotrophin": 4888,
      "Ġheat": 4889,
      "Ġshape": 4890,
      "Ġrabbits": 4891,
      "Ġrelationship": 4892,
      "Ġpurpose": 4893,
      "ser": 4894,
      "##93": 4895,
      "Ġbind": 4896,
      "Ġintensity": 4897,
      "Ġabund": 4898,
      "Ġtransient": 4899,
      "meth": 4900,
      "would": 4901,
      "##head": 4902,
      "Ġdent": 4903,
      "##osa": 4904,
      "Ġintermed": 4905,
      "Ġenough": 4906,
      "##................................": 4907,
      "Ġsent": 4908,
      "##edd": 4909,
      "Ġiss": 4910,
      "Ġanast": 4911,
      "##helial": 4912,
      "##ital": 4913,
      "##vey": 4914,
      "Ġinstead": 4915,
      "://": 4916,
      "##chen": 4917,
      "Ġect": 4918,
      "Ġelectric": 4919,
      "Ġreferred": 4920,
      "pressure": 4921,
      "--": 4922,
      "Ġrange": 4923,
      "##opic": 4924,
      "##ople": 4925,
      "Ġdischar": 4926,
      "Ġunm": 4927,
      "Ġlaw": 4928,
      "Ġsubstances": 4929,
      "Ġreference": 4930,
      "Ġrespiratory": 4931,
      "Ġdm": 4932,
      "Ġpark": 4933,
      "Ġplus": 4934,
      "Ġganglios": 4935,
      "Ġobser": 4936,
      "Ġdistributed": 4937,
      "Ġdecl": 4938,
      "Ġsynthesis": 4939,
      "tissue": 4940,
      "Ġsymptomatology": 4941,
      "##iques": 4942,
      "##iness": 4943,
      "Ġ1986": 4944,
      "Ġrepresented": 4945,
      "Ġsummary": 4946,
      "slight": 4947,
      "Ġcs": 4948,
      "Ġnak": 4949,
      "##quency": 4950,
      "Ġtransfer": 4951,
      "Ġmount": 4952,
      "Ġcolliculus": 4953,
      "Ġcatar": 4954,
      "fibres": 4955,
      "Ġxxx": 4956,
      "gre": 4957,
      "nucle": 4958,
      "##where": 4959,
      "Ġdeficient": 4960,
      "##ieved": 4961,
      "Ġexplain": 4962,
      "Ġwounds": 4963,
      "Ġneutral": 4964,
      "##78": 4965,
      "Ġindicating": 4966,
      "Ġpromoting": 4967,
      "Ġservice": 4968,
      "sch": 4969,
      "##brain": 4970,
      "Ġfresh": 4971,
      "##pped": 4972,
      "Ġplates": 4973,
      "Ġarc": 4974,
      "Ġprefer": 4975,
      "##oxic": 4976,
      "Ġextremely": 4977,
      "ev": 4978,
      "obs": 4979,
      "stud": 4980,
      "Ġgoldfish": 4981,
      "Ġpains": 4982,
      "Ġpulse": 4983,
      "Ġendot": 4984,
      "ef": 4985,
      "##ook": 4986,
      "##rine": 4987,
      "##eding": 4988,
      "##orter": 4989,
      "Ġlem": 4990,
      "Ġcongest": 4991,
      "##icht": 4992,
      "Ġbelong": 4993,
      "Ġextends": 4994,
      "Ġmorphological": 4995,
      "Ġprojections": 4996,
      "Ġprogenitors": 4997,
      "##va": 4998,
      "Ġmir": 4999,
      "Ġadapt": 5000,
      "Ġbiom": 5001,
      "Ġbars": 5002,
      "fre": 5003,
      "over": 5004,
      "##iot": 5005,
      "Ġcntf": 5006,
      "Ġank": 5007,
      "##ials": 5008,
      "Ġbloc": 5009,
      "Ġago": 5010,
      "Ġdefined": 5011,
      "Ġulcer": 5012,
      "Ġdissem": 5013,
      "Ġpermanent": 5014,
      "##cephal": 5015,
      "Ġ58": 5016,
      "Ġmart": 5017,
      "Ġpersons": 5018,
      "##known": 5019,
      "##wer": 5020,
      "Ġstret": 5021,
      "##ussion": 5022,
      "Ġfailed": 5023,
      "Ġcontral": 5024,
      "Ġeffort": 5025,
      "Ġserious": 5026,
      "Ġdelet": 5027,
      "Ġdrawn": 5028,
      "Ġhol": 5029,
      "##umps": 5030,
      "Ġwhy": 5031,
      "Ġsuc": 5032,
      "Ġindependent": 5033,
      "Ġdescription": 5034,
      "et": 5035,
      "##enz": 5036,
      "Ġeph": 5037,
      "##oman": 5038,
      "##owsk": 5039,
      "##ocyte": 5040,
      "Ġindex": 5041,
      "Ġsimilarly": 5042,
      "Ġtechnique": 5043,
      "Ġprincip": 5044,
      "Ġprolonged": 5045,
      "red": 5046,
      "##yn": 5047,
      "Ġtail": 5048,
      "##agger": 5049,
      "Ġadmitted": 5050,
      "than": 5051,
      "Ġrestoration": 5052,
      "Ġmoderate": 5053,
      ",-": 5054,
      "way": 5055,
      "Ġcoc": 5056,
      "##irth": 5057,
      "Ġcho": 5058,
      "Ġimpair": 5059,
      "Ġoutside": 5060,
      "Ġmarg": 5061,
      "Ġtraced": 5062,
      "##ohist": 5063,
      "Ġlun": 5064,
      "Ġtook": 5065,
      "Ġthy": 5066,
      "##imate": 5067,
      "Ġjer": 5068,
      "##ruption": 5069,
      "Ġpoison": 5070,
      "Ġhospitals": 5071,
      "##genital": 5072,
      "Ġprotoplasmic": 5073,
      "##chlear": 5074,
      "Ġones": 5075,
      "Ġinterc": 5076,
      "Ġbrains": 5077,
      "Ġmodified": 5078,
      "Ġprominent": 5079,
      "Ġmaxim": 5080,
      "Ġbring": 5081,
      "Ġhimself": 5082,
      "##ounced": 5083,
      "Ġtouch": 5084,
      "##injured": 5085,
      "Ġhorizontal": 5086,
      "react": 5087,
      "Ġvalues": 5088,
      "Ġdisappear": 5089,
      "Ġproteoglycan": 5090,
      "Ġprocedure": 5091,
      "Ġpharmac": 5092,
      "Ġni": 5093,
      "##iff": 5094,
      "Ġfloor": 5095,
      "1992": 5096,
      "Ġgiving": 5097,
      "Ġphysiology": 5098,
      "Ġnecrosis": 5099,
      "Ġdate": 5100,
      "Ġspaces": 5101,
      "Ġ99": 5102,
      "Ġveins": 5103,
      "##ography": 5104,
      "dig": 5105,
      "##ather": 5106,
      "Ġyellow": 5107,
      "Ġpartly": 5108,
      "Ġmicrotub": 5109,
      "##arks": 5110,
      "Ġpreg": 5111,
      "Ġsequence": 5112,
      "Ġwal": 5113,
      "Ġlancet": 5114,
      "Ġstructural": 5115,
      "Ġdetect": 5116,
      "Ġgranular": 5117,
      "##nervation": 5118,
      "Ġregulate": 5119,
      "Ġmiss": 5120,
      "##ift": 5121,
      "Ġantigen": 5122,
      "##obl": 5123,
      "Ġinvestigated": 5124,
      "Ġcommonly": 5125,
      "Ġrelease": 5126,
      "##33": 5127,
      "##issl": 5128,
      "Ġ2003": 5129,
      "Ġoperated": 5130,
      "Ġequally": 5131,
      "Ġdiminished": 5132,
      "##wick": 5133,
      "##isions": 5134,
      "##ipl": 5135,
      "Ġquick": 5136,
      "##ogene": 5137,
      "Ġmixed": 5138,
      "##taining": 5139,
      "Ġknock": 5140,
      "Ġaxotomized": 5141,
      "Ġconcentration": 5142,
      "Ġstress": 5143,
      "Ġenzym": 5144,
      "##uller": 5145,
      "Ġmotion": 5146,
      "Ġglycoprotein": 5147,
      "Î²": 5148,
      "Ġdro": 5149,
      "Ġhered": 5150,
      "Ġglut": 5151,
      "Ġdifferentiated": 5152,
      "Ġdiscussed": 5153,
      "lesion": 5154,
      "##dl": 5155,
      "Ġtension": 5156,
      "##osing": 5157,
      "##agra": 5158,
      "##aken": 5159,
      "##ï¿½": 5160,
      "##hest": 5161,
      "Ġbones": 5162,
      "Ġeur": 5163,
      "##iles": 5164,
      "Ġamb": 5165,
      "Ġjoints": 5166,
      "muscles": 5167,
      "Ġterminate": 5168,
      "Ġvitreous": 5169,
      "Ġaort": 5170,
      "##ering": 5171,
      "Ġmap": 5172,
      "Ġdies": 5173,
      "Ġflat": 5174,
      "Ġrecovered": 5175,
      "Ġmicroglial": 5176,
      "Ġconvulsions": 5177,
      "##mal": 5178,
      "##faces": 5179,
      "Ġwave": 5180,
      "##ellent": 5181,
      "Ġchol": 5182,
      "##onscious": 5183,
      "Ġcentres": 5184,
      "Ġhyal": 5185,
      "Ġheadache": 5186,
      "##ttps": 5187,
      "Ġpractice": 5188,
      "##lu": 5189,
      "Ġdpi": 5190,
      "##geal": 5191,
      "Ġbiological": 5192,
      "Ġintroduction": 5193,
      "Ġjohn": 5194,
      "Ġdestroyed": 5195,
      "001": 5196,
      "cord": 5197,
      "net": 5198,
      "under": 5199,
      "##ging": 5200,
      "Ġname": 5201,
      "##amen": 5202,
      "##empor": 5203,
      "Ġrecur": 5204,
      "Ġcenters": 5205,
      "Ġgland": 5206,
      "Ġexcitation": 5207,
      "Ġvessel": 5208,
      "Ġfields": 5209,
      "lateral": 5210,
      "Ġpneum": 5211,
      "Ġdisp": 5212,
      "Ġpla": 5213,
      "Ġamput": 5214,
      "##ylin": 5215,
      "##uchi": 5216,
      "Ġgreatest": 5217,
      "Ġcausing": 5218,
      "Ġcycl": 5219,
      "vol": 5220,
      "##adic": 5221,
      "Ġ::": 5222,
      "Ġhands": 5223,
      "Ġconsistent": 5224,
      "500": 5225,
      "##uses": 5226,
      "Ġintracellular": 5227,
      "Ġconjunctiva": 5228,
      "Ġexposure": 5229,
      "nd": 5230,
      "##ply": 5231,
      "Ġsie": 5232,
      "Ġfol": 5233,
      "Ġfetal": 5234,
      "##ervation": 5235,
      "Ġeffective": 5236,
      "Ġstatist": 5237,
      "65": 5238,
      "##ture": 5239,
      "##hn": 5240,
      "##47": 5241,
      "##itial": 5242,
      "##omal": 5243,
      "##ivation": 5244,
      "Ġparas": 5245,
      "Ġregular": 5246,
      "Ġfeet": 5247,
      "Ġbelieved": 5248,
      "Ġcspg": 5249,
      "66": 5250,
      "joint": 5251,
      "Ġtas": 5252,
      "Ġincl": 5253,
      "Ġregen": 5254,
      "Ġhybrid": 5255,
      "Ġ95": 5256,
      "Ġelimin": 5257,
      "Ġcalcul": 5258,
      "Ġlook": 5259,
      "Ġmicroscopic": 5260,
      "Ġstandard": 5261,
      "Ġhence": 5262,
      "Ġmouth": 5263,
      "Ġstro": 5264,
      "Ġnov": 5265,
      "Ġparaplegia": 5266,
      "101": 5267,
      "##alt": 5268,
      "Ġbm": 5269,
      "##igm": 5270,
      "##elled": 5271,
      "##alysed": 5272,
      "orig": 5273,
      "Ġmethyl": 5274,
      "Ġprimarily": 5275,
      "##apses": 5276,
      "about": 5277,
      "Ġsamples": 5278,
      "##,,": 5279,
      "Ġsevered": 5280,
      "Ġstimulated": 5281,
      "Ġslowly": 5282,
      "ĉĉĉĉĉĉ": 5283,
      "##ommod": 5284,
      "Ġsyndrome": 5285,
      "Ġapparatus": 5286,
      "during": 5287,
      "##onus": 5288,
      "Ġpair": 5289,
      "##entgen": 5290,
      "##ude": 5291,
      "Ġ52": 5292,
      "Ġvisible": 5293,
      "Ġpropri": 5294,
      "usually": 5295,
      "man": 5296,
      "##utely": 5297,
      "##ols": 5298,
      "Ġforty": 5299,
      "Ġshr": 5300,
      "who": 5301,
      "Ġtendon": 5302,
      "Ġsynapse": 5303,
      "Ġidea": 5304,
      "Ġsurgeon": 5305,
      "Ġaccepted": 5306,
      "fact": 5307,
      "Ġneon": 5308,
      "Ġneither": 5309,
      "Ġperiv": 5310,
      "##oneal": 5311,
      "Ġstimulus": 5312,
      "Ġnm": 5313,
      "##ollen": 5314,
      "Ġpred": 5315,
      "Ġscient": 5316,
      "prob": 5317,
      "Ġrecognized": 5318,
      "Ġcytokines": 5319,
      "Ġuninjured": 5320,
      "Ġappreci": 5321,
      "Ġimmunohist": 5322,
      "Ġalterations": 5323,
      "Ġoctober": 5324,
      "Ġsound": 5325,
      "##stract": 5326,
      "##ectomy": 5327,
      "Ġcentr": 5328,
      "Ġflow": 5329,
      "Ġmaintained": 5330,
      "Ġbenef": 5331,
      "Ġcommittee": 5332,
      "certain": 5333,
      "Ġintense": 5334,
      "Ġbiology": 5335,
      "Ġpointed": 5336,
      "Ġexplained": 5337,
      "Ġstimuli": 5338,
      "Ġwallerian": 5339,
      "Ġhysteria": 5340,
      "Ġwidely": 5341,
      "63": 5342,
      "made": 5343,
      "##ias": 5344,
      "##ao": 5345,
      "Ġaj": 5346,
      "Ġlect": 5347,
      "Ġunknown": 5348,
      "Ġgenetic": 5349,
      "Ġterms": 5350,
      "import": 5351,
      "Ġmeninges": 5352,
      "ĠÎ¼m": 5353,
      "great": 5354,
      "Ġdynam": 5355,
      "Ġanastom": 5356,
      "her": 5357,
      "Â¨": 5358,
      "##fgf": 5359,
      "Ġpul": 5360,
      "Ġpartially": 5361,
      "Ġsecretion": 5362,
      "##ille": 5363,
      "nerves": 5364,
      "Ġdavid": 5365,
      "Ġmesenchymal": 5366,
      "##chem": 5367,
      "Ġowing": 5368,
      "Ġbacter": 5369,
      "Ġunless": 5370,
      "Ġtransmission": 5371,
      "Ġintern": 5372,
      "Ġmarkedly": 5373,
      "1988": 5374,
      "Ġmakes": 5375,
      "Ġangle": 5376,
      "Ġchamber": 5377,
      "91": 5378,
      "Ġtive": 5379,
      "##enth": 5380,
      "Ġchief": 5381,
      "Ġreserve": 5382,
      "Ġcylinders": 5383,
      "Ġdisappeared": 5384,
      "Ġtext": 5385,
      "incre": 5386,
      "Ġuniform": 5387,
      "##ostic": 5388,
      "Ġglands": 5389,
      "Ġzur": 5390,
      "Ġataxia": 5391,
      "Ġdisseminated": 5392,
      "90": 5393,
      "##era": 5394,
      "Ġbor": 5395,
      "##entric": 5396,
      "Ġconsideration": 5397,
      "##heless": 5398,
      "shaped": 5399,
      "Ġselective": 5400,
      "Ġinteraction": 5401,
      "Ġresistance": 5402,
      "Ġvest": 5403,
      "Ġlev": 5404,
      "##artz": 5405,
      "Ġ1909": 5406,
      "Ġoccipital": 5407,
      "Ġfairly": 5408,
      "jer": 5409,
      "##mus": 5410,
      "##86": 5411,
      "Ġampl": 5412,
      "Ġfeature": 5413,
      "Ġ1985": 5414,
      "Ġcollege": 5415,
      "Ġfixation": 5416,
      "Ġpalsy": 5417,
      "ï¬": 5418,
      "Ġdia": 5419,
      "##osk": 5420,
      "Ġ...": 5421,
      "Ġmarker": 5422,
      "Ġmonkeys": 5423,
      "Ġct": 5424,
      "Ġwild": 5425,
      "Ġthomas": 5426,
      "##seud": 5427,
      "##gence": 5428,
      "##essels": 5429,
      "##âĢĶ": 5430,
      "Ġpaths": 5431,
      "1990": 5432,
      "Ġaltered": 5433,
      "##ypes": 5434,
      "Ġlying": 5435,
      "##rauma": 5436,
      "Ġincomplete": 5437,
      "sci": 5438,
      "Ġmix": 5439,
      "Ġadmission": 5440,
      "Ġpresum": 5441,
      "Ġevent": 5442,
      "Ġ1984": 5443,
      "Ġedge": 5444,
      "Ġ**": 5445,
      "Ġcspgs": 5446,
      "##76": 5447,
      "Ġsn": 5448,
      "##ilar": 5449,
      "##stances": 5450,
      "Ġsplint": 5451,
      "Ġcirculation": 5452,
      "ol": 5453,
      "##bb": 5454,
      "##:;": 5455,
      "Ġprimitive": 5456,
      "page": 5457,
      "##bid": 5458,
      "##bow": 5459,
      "##84": 5460,
      "Ġplane": 5461,
      "Ġ73": 5462,
      "Ġ91": 5463,
      "Ġelectron": 5464,
      "##ka": 5465,
      "Ġsich": 5466,
      "Ġstep": 5467,
      "##fts": 5468,
      "##othalam": 5469,
      "Ġcovered": 5470,
      "Ġtremor": 5471,
      "move": 5472,
      "Ġauf": 5473,
      "##atism": 5474,
      "Ġland": 5475,
      "Ġfibronectin": 5476,
      "Ġgrafting": 5477,
      "diagn": 5478,
      "##90": 5479,
      "##onomic": 5480,
      "Ġwat": 5481,
      "Ġtom": 5482,
      "Ġ101": 5483,
      "Ġconfined": 5484,
      "Ġexud": 5485,
      "Ġ71": 5486,
      "Ġleading": 5487,
      "Ġmasses": 5488,
      "Ġenshe": 5489,
      "Ġinterpret": 5490,
      "##ulating": 5491,
      "##ilem": 5492,
      "Ġtreatments": 5493,
      "Ġabscess": 5494,
      "Ġvect": 5495,
      "Ġkidney": 5496,
      "Ġnarrow": 5497,
      "##ht": 5498,
      "##91": 5499,
      "Ġsays": 5500,
      "##aded": 5501,
      "often": 5502,
      "Ġbladder": 5503,
      "Ġremyelination": 5504,
      "##eningitis": 5505,
      "Ġinterval": 5506,
      "##venth": 5507,
      "Ġcarefully": 5508,
      "##view": 5509,
      "Ġacet": 5510,
      "Ġbad": 5511,
      "1991": 5512,
      "Ġhemorrh": 5513,
      "Ġgrafted": 5514,
      "Ġmidline": 5515,
      "section": 5516,
      "Ġhop": 5517,
      "Ġko": 5518,
      "Ġlear": 5519,
      "Ġsox": 5520,
      "Ġscs": 5521,
      "Ġ85": 5522,
      "Ġpasses": 5523,
      "Ġidentification": 5524,
      "Ġbeneficial": 5525,
      "##aryngeal": 5526,
      "Ġdeletion": 5527,
      "##rich": 5528,
      "##oni": 5529,
      "Ġself": 5530,
      "##osum": 5531,
      "Ġ56": 5532,
      "Ġfrequency": 5533,
      "Ġfibrous": 5534,
      "##mia": 5535,
      "Ġhold": 5536,
      "Ġ(âĢĻ": 5537,
      "##resis": 5538,
      "##abor": 5539,
      "##endym": 5540,
      "Ġleuk": 5541,
      "Ġmargin": 5542,
      "Ġdegenerating": 5543,
      "Ġ185": 5544,
      "Ġsaw": 5545,
      "Ġregarding": 5546,
      "##vier": 5547,
      "Ġsod": 5548,
      "##icip": 5549,
      "Ġring": 5550,
      "##ously": 5551,
      "Ġbarrier": 5552,
      "Ġidentify": 5553,
      "Ġpostnatal": 5554,
      "var": 5555,
      "##ij": 5556,
      "Ġbun": 5557,
      "Ġwass": 5558,
      "Ġparalyzed": 5559,
      "Ġroles": 5560,
      "Ġendings": 5561,
      "Ġantagon": 5562,
      "##gfp": 5563,
      "Ġphenotype": 5564,
      "##ami": 5565,
      "Ġerror": 5566,
      "##aki": 5567,
      "Ġprogram": 5568,
      "Ġproduces": 5569,
      "Ġoculomotor": 5570,
      "however": 5571,
      "mac": 5572,
      "##uary": 5573,
      "##vis": 5574,
      "Ġpor": 5575,
      "Ġkilled": 5576,
      "Ġuns": 5577,
      "##herent": 5578,
      "Ġconstit": 5579,
      "Ġregards": 5580,
      "Ġbreak": 5581,
      "##dnf": 5582,
      "Ġspastic": 5583,
      "Ġwashed": 5584,
      "Ġdistances": 5585,
      "##oids": 5586,
      "Ġpractical": 5587,
      "Ġsexual": 5588,
      "##ocytosis": 5589,
      "Ġprofessor": 5590,
      "Ġstrategies": 5591,
      "##jected": 5592,
      "Ġtur": 5593,
      "Ġcues": 5594,
      "##utaneous": 5595,
      "Ġclus": 5596,
      "Ġintrav": 5597,
      "Ġskull": 5598,
      "Ġdefects": 5599,
      "Ġimmunoreactivity": 5600,
      "Ġeigh": 5601,
      "Ġll": 5602,
      "Ġ..": 5603,
      "Ġ250": 5604,
      "Ġrespiration": 5605,
      "Ġfasciculus": 5606,
      "Ġpuncture": 5607,
      "Ġperivascular": 5608,
      "Ġmuller": 5609,
      "##opsy": 5610,
      "Ġiod": 5611,
      "Ġindirect": 5612,
      "Ġgraph": 5613,
      "Ġexpressing": 5614,
      "##iculate": 5615,
      "Ġkerat": 5616,
      "Ġcataract": 5617,
      "Ġmis": 5618,
      "##roup": 5619,
      "Ġroentgen": 5620,
      "Ġtaking": 5621,
      "Ġsubsequently": 5622,
      "71": 5623,
      "hist": 5624,
      "##gration": 5625,
      "Ġak": 5626,
      "Ġcore": 5627,
      "Ġjr": 5628,
      "Ġ500": 5629,
      "Ġepileptic": 5630,
      "Ġpedun": 5631,
      "small": 5632,
      "Ġstrength": 5633,
      "Ġneurogenesis": 5634,
      "Ġnissl": 5635,
      "##oming": 5636,
      "Ġorth": 5637,
      "Ġinduces": 5638,
      "Ġscatter": 5639,
      "Ġcoord": 5640,
      "Ġintervals": 5641,
      "Ġcomponent": 5642,
      "Ġconfirm": 5643,
      "Ġvertebrates": 5644,
      "##eth": 5645,
      "##cal": 5646,
      "Ġmu": 5647,
      "Ġbab": 5648,
      "Ġstalk": 5649,
      "Ġspin": 5650,
      "Ġpresents": 5651,
      "Ġinfant": 5652,
      "Ġinhibits": 5653,
      "Ġedema": 5654,
      "Ġtraining": 5655,
      "Ġmaximum": 5656,
      "##ria": 5657,
      "Ġplan": 5658,
      "blood": 5659,
      "Ġpronounced": 5660,
      "42": 5661,
      "Ġ00": 5662,
      "##ara": 5663,
      "Ġexcre": 5664,
      "Ġexclud": 5665,
      "Ġhemiplegia": 5666,
      "Ġarchives": 5667,
      "Ġenhances": 5668,
      "Ġophthalmic": 5669,
      "Ġfocus": 5670,
      ")-": 5671,
      "Ġwa": 5672,
      "Ġkim": 5673,
      "Ġarising": 5674,
      "years": 5675,
      "Ġtry": 5676,
      "Ġot": 5677,
      "Ġbirth": 5678,
      "Ġnf": 5679,
      "##cipit": 5680,
      "Ġ2020": 5681,
      "Ġfinding": 5682,
      "Ġconsequently": 5683,
      "##dominal": 5684,
      "Ġhippocampal": 5685,
      "95": 5686,
      "abs": 5687,
      "Ġbuffer": 5688,
      "Ġ('": 5689,
      "Ġorient": 5690,
      "Ġneurilem": 5691,
      "Ġcontusion": 5692,
      "Ġdefinitely": 5693,
      "##encephalic": 5694,
      "Ġchannels": 5695,
      "Ġimmunohistochem": 5696,
      "##yth": 5697,
      "Ġcure": 5698,
      "Ġpd": 5699,
      "Ġhs": 5700,
      "##otomy": 5701,
      "Ġpermissive": 5702,
      "Ġimpaired": 5703,
      "Ġemphas": 5704,
      "Ġimmunol": 5705,
      "Ġincludes": 5706,
      "Ġkeep": 5707,
      "local": 5708,
      "##vant": 5709,
      "Ġwhom": 5710,
      "Ġ57": 5711,
      "Ġ81": 5712,
      "Ġcomparative": 5713,
      "Ġcephal": 5714,
      "Ġexhibit": 5715,
      "Ġarticle": 5716,
      "Ġarrangement": 5717,
      "must": 5718,
      "##82": 5719,
      "##ibular": 5720,
      "56": 5721,
      "##bre": 5722,
      "##imed": 5723,
      "Ġparaf": 5724,
      "##clerosis": 5725,
      "jour": 5726,
      "Ġ72": 5727,
      "##roglial": 5728,
      "Ġessentially": 5729,
      "occur": 5730,
      "test": 5731,
      "##nell": 5732,
      "##field": 5733,
      "##ware": 5734,
      "Ġnight": 5735,
      "Ġsph": 5736,
      "Ġleuc": 5737,
      "Ġindividuals": 5738,
      "Ġdemyelination": 5739,
      "Ġfibrils": 5740,
      "Ġanesthesia": 5741,
      "Ġblindness": 5742,
      "loss": 5743,
      "##oub": 5744,
      "##zen": 5745,
      "Ġfi": 5746,
      "##ortem": 5747,
      "Ġ54": 5748,
      "Ġhydro": 5749,
      "Ġproducing": 5750,
      "Ġcontralateral": 5751,
      "##theless": 5752,
      "##erted": 5753,
      "Ġcongenital": 5754,
      "Ġanl": 5755,
      "##anger": 5756,
      "Ġopening": 5757,
      "Ġinvolving": 5758,
      "Ġphosphat": 5759,
      "##rupted": 5760,
      "##acute": 5761,
      "##rane": 5762,
      "Ġ300": 5763,
      "Ġarrow": 5764,
      "Ġtrace": 5765,
      "Ġextensor": 5766,
      "Ġproducts": 5767,
      "Ġcardiac": 5768,
      "half": 5769,
      "##oster": 5770,
      "##cember": 5771,
      "##inson": 5772,
      "Ġelement": 5773,
      "##rograph": 5774,
      "Ġcollagen": 5775,
      "Ġcrushed": 5776,
      "Ġmemory": 5777,
      "##oclonal": 5778,
      "pres": 5779,
      "Ġinact": 5780,
      "##ank": 5781,
      "Ġrna": 5782,
      "##ady": 5783,
      "Ġintest": 5784,
      "Ġoverl": 5785,
      "Ġdegrees": 5786,
      "Ġfatty": 5787,
      "Ġextreme": 5788,
      "Ġnephritis": 5789,
      "Ġneonatal": 5790,
      "body": 5791,
      "##night": 5792,
      "##imately": 5793,
      "Ġonc": 5794,
      "Ġaccommod": 5795,
      "Ġdomin": 5796,
      "Ġpellagra": 5797,
      "character": 5798,
      "gal": 5799,
      "nt": 5800,
      "old": 5801,
      "Ġpus": 5802,
      "##omer": 5803,
      "Ġminim": 5804,
      "Ġcollapse": 5805,
      "Ġquantification": 5806,
      "##phasia": 5807,
      "Ġâ": 5808,
      "Ġalex": 5809,
      "Ġpall": 5810,
      "##thy": 5811,
      "Ġacts": 5812,
      "Ġsupplement": 5813,
      "Ġswollen": 5814,
      "Ġinvestigations": 5815,
      "left": 5816,
      "##iveness": 5817,
      "Ġroyal": 5818,
      "Ġtransgenic": 5819,
      "Ġphosphorylation": 5820,
      ",,": 5821,
      "five": 5822,
      "Ġpin": 5823,
      "Ġpont": 5824,
      "##ita": 5825,
      "Ġgi": 5826,
      "##osh": 5827,
      "three": 5828,
      "Ġhemis": 5829,
      "Ġmedullated": 5830,
      "##irds": 5831,
      "Ġcommission": 5832,
      "99": 5833,
      "function": 5834,
      "num": 5835,
      "Ġpi": 5836,
      "##acu": 5837,
      "Ġrecru": 5838,
      "##ifications": 5839,
      "##rick": 5840,
      "2027": 5841,
      "Ġthickness": 5842,
      "Ġdraw": 5843,
      "##ogloss": 5844,
      "second": 5845,
      "cort": 5846,
      "sever": 5847,
      "##pha": 5848,
      "Ġadequ": 5849,
      "Ġtransform": 5850,
      "Ġinvolve": 5851,
      "Ġrequires": 5852,
      "Ġalbumin": 5853,
      "##oskelet": 5854,
      "clin": 5855,
      "prom": 5856,
      "##nes": 5857,
      "Ġnach": 5858,
      "Ġunderlying": 5859,
      "const": 5860,
      "Ġvalu": 5861,
      "Ġjohns": 5862,
      "Ġpiece": 5863,
      "##31": 5864,
      "Ġcru": 5865,
      "Ġmas": 5866,
      "##ella": 5867,
      "##ths": 5868,
      "##orted": 5869,
      "##ours": 5870,
      "Ġactually": 5871,
      "syphil": 5872,
      "Ġsubstrates": 5873,
      "large": 5874,
      "method": 5875,
      "digitized": 5876,
      "07": 5877,
      "hdl": 5878,
      "##onuclear": 5879,
      "##olved": 5880,
      "##ucing": 5881,
      "Ġengl": 5882,
      "##achment": 5883,
      "##aves": 5884,
      "Ġadvance": 5885,
      "Ġ1906": 5886,
      "Ġmaterials": 5887,
      "Ġoil": 5888,
      "##elph": 5889,
      "Ġneurax": 5890,
      "##illa": 5891,
      "Ġ69": 5892,
      "Ġrelief": 5893,
      "Ġconnect": 5894,
      "Ġcharacteristics": 5895,
      "handle": 5896,
      "where": 5897,
      "##oform": 5898,
      "##can": 5899,
      "Ġtin": 5900,
      "Ġdeaf": 5901,
      "Ġkin": 5902,
      "Ġcarry": 5903,
      "Ġintravitre": 5904,
      "il": 5905,
      "Ġnine": 5906,
      "##ida": 5907,
      "##asthen": 5908,
      "Ġaugust": 5909,
      "sensory": 5910,
      "...": 5911,
      "vessels": 5912,
      "##lies": 5913,
      "Ġsight": 5914,
      "##olgi": 5915,
      "##chol": 5916,
      "##rant": 5917,
      "Ġdiagram": 5918,
      "examin": 5919,
      "Ġ1913": 5920,
      "Ġ150": 5921,
      "Ġsalt": 5922,
      "Ġgradual": 5923,
      "Ġbruce": 5924,
      "Ġauditory": 5925,
      "ĠÃ": 5926,
      "Ġdass": 5927,
      "Ġunli": 5928,
      "though": 5929,
      "Ġependym": 5930,
      "1989": 5931,
      "Ġamounts": 5932,
      "pass": 5933,
      "table": 5934,
      "##ineur": 5935,
      "while": 5936,
      "##ituitary": 5937,
      "Ġquantity": 5938,
      "Ġextremity": 5939,
      "##haust": 5940,
      "32": 5941,
      "85": 5942,
      "##30": 5943,
      "##iger": 5944,
      "##ether": 5945,
      "##ultaneous": 5946,
      "Ġimaging": 5947,
      "Ġastroc": 5948,
      "Ġmyot": 5949,
      "##iculi": 5950,
      "##),": 5951,
      "Ġmother": 5952,
      "##phys": 5953,
      "##esthesia": 5954,
      "Ġmedia": 5955,
      "Ġ76": 5956,
      "Ġmonoclonal": 5957,
      "Ġcollected": 5958,
      "ĠÂ»": 5959,
      "Ġtracing": 5960,
      "1987": 5961,
      "Ġpeak": 5962,
      "Ġaccessory": 5963,
      "Ġadvantage": 5964,
      "##gg": 5965,
      "##inter": 5966,
      "Ġfilled": 5967,
      "##ifically": 5968,
      "Ġsoluble": 5969,
      "Ġmultip": 5970,
      "Ġgrown": 5971,
      "Ġmotoneur": 5972,
      "Ġsituation": 5973,
      "Ġenlargement": 5974,
      "Ġremarkable": 5975,
      "##wal": 5976,
      "##wor": 5977,
      "Ġwoman": 5978,
      "##elve": 5979,
      "##oted": 5980,
      "##ames": 5981,
      "Ġsure": 5982,
      "Ġchore": 5983,
      "Ġhaem": 5984,
      "Ġimpulse": 5985,
      "Ġclosed": 5986,
      "Ġschwartz": 5987,
      "Ġimmunost": 5988,
      "Ġgrew": 5989,
      "Ġrobust": 5990,
      "both": 5991,
      "Ġion": 5992,
      "##icated": 5993,
      "##urally": 5994,
      "##artil": 5995,
      "Ġeration": 5996,
      "Ġsaline": 5997,
      "Ġsurrounded": 5998,
      "Ġsoftening": 5999,
      "47": 6000,
      "due": 6001,
      "##ining": 6002,
      "##rose": 6003,
      "Ġfast": 6004,
      "Ġcomes": 6005,
      "Ġparis": 6006,
      "state": 6007,
      "##dehy": 6008,
      "Ġveh": 6009,
      "Ġidentical": 6010,
      "Ġreturned": 6011,
      "Ġsuffering": 6012,
      "ï¬ģ": 6013,
      "pa": 6014,
      "##ek": 6015,
      "##heimer": 6016,
      "##itor": 6017,
      "Ġjud": 6018,
      "Ġsurpr": 6019,
      "pup": 6020,
      "Ġ>": 6021,
      "##loc": 6022,
      "##renal": 6023,
      "##ato": 6024,
      "Ġprove": 6025,
      "Ġcerebrospinal": 6026,
      "Ġsimply": 6027,
      "Ġpeople": 6028,
      "Ġsulcus": 6029,
      "##ischen": 6030,
      "Ġcounted": 6031,
      "Ġunderstanding": 6032,
      "Ġvertical": 6033,
      "Ġglutam": 6034,
      "hos": 6035,
      "normal": 6036,
      "sig": 6037,
      "##rid": 6038,
      "##atation": 6039,
      "Ġdense": 6040,
      "Ġges": 6041,
      "##ading": 6042,
      "Ġation": 6043,
      "##ogether": 6044,
      "##ortun": 6045,
      "Ġpredom": 6046,
      "Ġsurfaces": 6047,
      "Ġintraven": 6048,
      "Ġpotent": 6049,
      "Ġsixth": 6050,
      "Ġsuscept": 6051,
      "Ġtoxin": 6052,
      "##uct": 6053,
      "Ġdeform": 6054,
      "Ġmanip": 6055,
      "Ġamph": 6056,
      "different": 6057,
      "Ġfracture": 6058,
      "Ġlogical": 6059,
      "Ġbegins": 6060,
      "del": 6061,
      "##35": 6062,
      "##inte": 6063,
      "Ġreally": 6064,
      "Ġrib": 6065,
      "Ġhealing": 6066,
      "##athing": 6067,
      "Ġsensitive": 6068,
      "Ġ111": 6069,
      "111": 6070,
      "Ġdeliver": 6071,
      "Ġnevertheless": 6072,
      "Ġcorneal": 6073,
      "##opathic": 6074,
      "Ġbull": 6075,
      "##ilst": 6076,
      "Ġcontents": 6077,
      "##arded": 6078,
      "Ġcytoskelet": 6079,
      "Ġvertebrate": 6080,
      "Ġpreceding": 6081,
      "Ġvomiting": 6082,
      "Ġfro": 6083,
      "Ġweig": 6084,
      "Ġunus": 6085,
      "Ġotherwise": 6086,
      "Ġdiver": 6087,
      "Ġstimulate": 6088,
      "Ġbuild": 6089,
      "Ġbunge": 6090,
      "Ġju": 6091,
      "Ġlocation": 6092,
      "Ġirrad": 6093,
      "Ġexamples": 6094,
      "Ġbroad": 6095,
      "Ġsphinct": 6096,
      "sol": 6097,
      "Ġtip": 6098,
      "Ġja": 6099,
      "##acement": 6100,
      "Ġpassage": 6101,
      "posterior": 6102,
      "Ġfatal": 6103,
      "Ġneeded": 6104,
      "Ġbook": 6105,
      "Ġpeptide": 6106,
      "##rations": 6107,
      "##ko": 6108,
      "Ġts": 6109,
      "Ġou": 6110,
      "Ġoffic": 6111,
      "Ġexagger": 6112,
      "Ġpreserved": 6113,
      "Ġincision": 6114,
      "##rossed": 6115,
      "##ietal": 6116,
      "Ġselected": 6117,
      "Ġdiscovered": 6118,
      "Ġexactly": 6119,
      "Ġanalog": 6120,
      "Ġconsequence": 6121,
      "Ġtibial": 6122,
      "Ġvisceral": 6123,
      "##oubted": 6124,
      "54": 6125,
      "ganglion": 6126,
      "Â«": 6127,
      "Ġwt": 6128,
      "Ġexert": 6129,
      "##pping": 6130,
      "##acing": 6131,
      "Ġretraction": 6132,
      "Ġdelay": 6133,
      "Ġdecuss": 6134,
      "Ġrigidity": 6135,
      "Ġscattered": 6136,
      "group": 6137,
      "##cam": 6138,
      "Ġparent": 6139,
      "Ġpseud": 6140,
      "##eler": 6141,
      "Ġstumps": 6142,
      "Ġxen": 6143,
      "Ġseverity": 6144,
      "Ġbranching": 6145,
      "Ġflexion": 6146,
      "Ġwalking": 6147,
      "eye": 6148,
      "::": 6149,
      "bone": 6150,
      "##oot": 6151,
      "##pes": 6152,
      "##ba": 6153,
      "##ben": 6154,
      "##fs": 6155,
      "##vars": 6156,
      "Ġapt": 6157,
      "##asons": 6158,
      "##abc": 6159,
      "Ġklin": 6160,
      "##oidal": 6161,
      "Ġventricles": 6162,
      "central": 6163,
      "##ĪĴ": 6164,
      "Ġpituitary": 6165,
      "Ġrenal": 6166,
      "Ġrj": 6167,
      "Ġabdominal": 6168,
      "Ġphal": 6169,
      "Ġbrainstem": 6170,
      "asylum": 6171,
      "Ġmicroscopy": 6172,
      "Ġdistinguish": 6173,
      "Ġepidemic": 6174,
      "Ġscientific": 6175,
      "Ġvaluable": 6176,
      "##vii": 6177,
      "Ġways": 6178,
      "Ġwood": 6179,
      "Ġnal": 6180,
      "Ġjun": 6181,
      "##aint": 6182,
      "##isted": 6183,
      "Ġrestricted": 6184,
      "Ġpolym": 6185,
      "Ġnetwork": 6186,
      "Ġmutant": 6187,
      "Ġgradients": 6188,
      "Ġabsolute": 6189,
      "Ġunmyelinated": 6190,
      "Ġwnt": 6191,
      "Ġlys": 6192,
      "Ġhair": 6193,
      "Ġprel": 6194,
      "Ġ66": 6195,
      "Ġelbow": 6196,
      "Ġmaintain": 6197,
      "Ġneurotrauma": 6198,
      "medull": 6199,
      "Ġhighest": 6200,
      "Ġexhibited": 6201,
      "Ġthrombosis": 6202,
      "Ġbfgf": 6203,
      "Ġgon": 6204,
      "Ġischem": 6205,
      "##ets": 6206,
      "##inea": 6207,
      "##itting": 6208,
      "##ischer": 6209,
      "Ġlobes": 6210,
      "Ġophthalmoscop": 6211,
      "Ġillustrated": 6212,
      "Ġjanuary": 6213,
      "Ġsleep": 6214,
      "Ġwassermann": 6215,
      "Ġneurilemma": 6216,
      "Ġï¬Ĥ": 6217,
      "##pir": 6218,
      "Ġamy": 6219,
      "##riction": 6220,
      "Ġsimultaneous": 6221,
      "Ġconditioning": 6222,
      "Ġpsycho": 6223,
      "Ġgranule": 6224,
      "Ġunconscious": 6225,
      "Ġsynapses": 6226,
      "Ġsufficiently": 6227,
      "Ġdiminution": 6228,
      "Ġconcerning": 6229,
      "Ġthyroid": 6230,
      "mental": 6231,
      "som": 6232,
      "##iy": 6233,
      "##ony": 6234,
      "Ġbrit": 6235,
      "Ġeos": 6236,
      "Ġlum": 6237,
      "Ġthumb": 6238,
      "Ġexclus": 6239,
      "Ġabol": 6240,
      "Ġ64": 6241,
      "Ġstatement": 6242,
      "Ġgmt": 6243,
      "Ġmonkey": 6244,
      "Ġmarkers": 6245,
      "effect": 6246,
      "Ġvehicle": 6247,
      "pain": 6248,
      "##inate": 6249,
      "Ġreticul": 6250,
      "##finity": 6251,
      "new": 6252,
      "medic": 6253,
      "Ġforeign": 6254,
      "Ġstraight": 6255,
      "Ġaspects": 6256,
      "Ġfragment": 6257,
      "##varsan": 6258,
      "46": 6259,
      "Ġarises": 6260,
      "Ġsubacute": 6261,
      "##isms": 6262,
      "Ġnewly": 6263,
      "Ġdelir": 6264,
      "Ġdelicate": 6265,
      "##ĠĠĠĠĠĠĠĠ": 6266,
      "##ygen": 6267,
      "##zz": 6268,
      "Ġape": 6269,
      "Ġoste": 6270,
      "Ġsir": 6271,
      "Ġwol": 6272,
      "##rap": 6273,
      "##cett": 6274,
      "##owers": 6275,
      "##estions": 6276,
      "Ġ89": 6277,
      "Ġdifferentiate": 6278,
      "Ġhemat": 6279,
      "Ġneurom": 6280,
      "Ġdeeply": 6281,
      "Ġsuffered": 6282,
      "Ġvariable": 6283,
      "Ġmarchi": 6284,
      "Ġhemispheres": 6285,
      "patients": 6286,
      "Ġibid": 6287,
      "##edded": 6288,
      "81": 6289,
      "bel": 6290,
      "binding": 6291,
      "ent": 6292,
      "Ġsort": 6293,
      "Ġrevers": 6294,
      "Ġstom": 6295,
      "Ġexamine": 6296,
      "##rotid": 6297,
      "Ġmeningeal": 6298,
      "Ġgait": 6299,
      "Ġfemale": 6300,
      "Ġscaffold": 6301,
      "##dehyde": 6302,
      "##rst": 6303,
      "Ġdre": 6304,
      "Ġschach": 6305,
      "Ġaccom": 6306,
      "anat": 6307,
      "Ġmorbid": 6308,
      "##awcett": 6309,
      "contin": 6310,
      "free": 6311,
      "Ġue": 6312,
      "Ġaid": 6313,
      "Ġrender": 6314,
      "##ige": 6315,
      "##ender": 6316,
      "Ġ120": 6317,
      "Ġclinically": 6318,
      "##bris": 6319,
      "especially": 6320,
      "##ystag": 6321,
      "Ġsemaphorin": 6322,
      "Ġspared": 6323,
      "Ġjm": 6324,
      "Ġplat": 6325,
      "Ġconstitute": 6326,
      "Ġfragments": 6327,
      "Ġpieces": 6328,
      "Â´": 6329,
      "##pa": 6330,
      "Ġthi": 6331,
      "Ġdecember": 6332,
      "Ġbriefly": 6333,
      "Ġinsuf": 6334,
      "Ġapproaches": 6335,
      "Ġstimulating": 6336,
      "Ġsecret": 6337,
      "Ġbridges": 6338,
      "related": 6339,
      "Ġnamely": 6340,
      "Ġprincipal": 6341,
      "##rist": 6342,
      "Ġward": 6343,
      "Ġwarm": 6344,
      "Ġimper": 6345,
      "Ġhemian": 6346,
      "Ġdegrad": 6347,
      "marked": 6348,
      "Ġplantar": 6349,
      ":;": 6350,
      "cre": 6351,
      "pd": 6352,
      "##iating": 6353,
      "Ġheter": 6354,
      "##generative": 6355,
      "Ġinvolves": 6356,
      "##ulsive": 6357,
      "Ġcollateral": 6358,
      "Ġtemporary": 6359,
      "Ġspecimens": 6360,
      "##dra": 6361,
      "##mg": 6362,
      "Ġtal": 6363,
      "Ġonto": 6364,
      "Ġnove": 6365,
      "Ġqui": 6366,
      "Ġxu": 6367,
      "review": 6368,
      "Ġreceive": 6369,
      "Ġhysterical": 6370,
      "Ġdrugs": 6371,
      "Ġimpairment": 6372,
      "diagnosis": 6373,
      "Ġture": 6374,
      "Ġnic": 6375,
      "Ġgsk": 6376,
      "Ġdebris": 6377,
      "Ġjones": 6378,
      "Ġune": 6379,
      "Ġclar": 6380,
      "Ġevolution": 6381,
      "##tenance": 6382,
      "Ġcolour": 6383,
      "Ġspeak": 6384,
      "##iminary": 6385,
      "plate": 6386,
      "Ġamerican": 6387,
      "Ġthigh": 6388,
      "##stood": 6389,
      "Ġspring": 6390,
      "Ġleaving": 6391,
      "Ġ62": 6392,
      "Ġagent": 6393,
      "Ġentwick": 6394,
      "Ġbeneath": 6395,
      "Ġinterestingly": 6396,
      "Ġcytokine": 6397,
      "##oblast": 6398,
      "Ġglutamate": 6399,
      "##gers": 6400,
      "Ġtgf": 6401,
      "Ġanalyses": 6402,
      "Ġjunction": 6403,
      "##ieve": 6404,
      "Ġyam": 6405,
      "##aterally": 6406,
      "##ologous": 6407,
      "##athy": 6408,
      "Ġrecognition": 6409,
      "##know": 6410,
      "##tl": 6411,
      "##rating": 6412,
      "##].": 6413,
      "Ġmun": 6414,
      "Ġarr": 6415,
      "Ġrand": 6416,
      "imm": 6417,
      "Ġclasses": 6418,
      "Ġseptember": 6419,
      "Ġprocedures": 6420,
      "Ġipsilateral": 6421,
      "##orption": 6422,
      "##aries": 6423,
      "##phoid": 6424,
      "Ġhapp": 6425,
      "Ġcounter": 6426,
      "Ġremed": 6427,
      "Ġagents": 6428,
      "Ġsupposed": 6429,
      "Ġoccasional": 6430,
      "##inje": 6431,
      "Ġexercise": 6432,
      "Ġsodium": 6433,
      "Ġschachner": 6434,
      "min": 6435,
      "##right": 6436,
      "##down": 6437,
      "##viii": 6438,
      "##ince": 6439,
      "Ġov": 6440,
      "Ġwel": 6441,
      "Ġseat": 6442,
      "Ġmode": 6443,
      "Ġexists": 6444,
      "2012": 6445,
      "Ġengine": 6446,
      "Ġintermediate": 6447,
      "Ġlunacy": 6448,
      "##gc": 6449,
      "Ġps": 6450,
      "Ġbell": 6451,
      "Ġbipolar": 6452,
      "##agitt": 6453,
      "##ocytic": 6454,
      "Ġchanged": 6455,
      "Ġemotion": 6456,
      "Ġ--": 6457,
      "Ġconfocal": 6458,
      "Ġdetailed": 6459,
      "73": 6460,
      "Ġparen": 6461,
      "Ġnational": 6462,
      "##ector": 6463,
      "##ologie": 6464,
      "Ġarms": 6465,
      "Ġ1912": 6466,
      "Ġexcellent": 6467,
      "Ġsupra": 6468,
      "##hyd": 6469,
      "Ġtrends": 6470,
      "Ġneurotrophins": 6471,
      "Ġscaffolds": 6472,
      "Ġmeeting": 6473,
      "Ġautoimm": 6474,
      "-ï¿½": 6475,
      "prog": 6476,
      "Ġregenera": 6477,
      "Ġtwelve": 6478,
      "Ġ83": 6479,
      "Ġxl": 6480,
      "##ipheral": 6481,
      "Ġautonomic": 6482,
      "Ġautopsy": 6483,
      "Ġshoulder": 6484,
      "##ï¬ģc": 6485,
      "Ġcats": 6486,
      "Ġsulph": 6487,
      "Ġannual": 6488,
      "Ġpersistent": 6489,
      "Ġnovember": 6490,
      "six": 6491,
      "##kinje": 6492,
      "##onn": 6493,
      "Ġball": 6494,
      "Ġboy": 6495,
      "Ġfirm": 6496,
      "Ġham": 6497,
      "Ġspat": 6498,
      "Ġjl": 6499,
      "##opus": 6500,
      "##rowing": 6501,
      "Ġ103": 6502,
      "Ġ1910": 6503,
      "##cript": 6504,
      "Ġeasy": 6505,
      "Ġintracranial": 6506,
      "Ġneurochem": 6507,
      "power": 6508,
      "Ġ%": 6509,
      "##94": 6510,
      "Ġbac": 6511,
      "Ġlas": 6512,
      "Ġling": 6513,
      "Ġobli": 6514,
      "Ġ68": 6515,
      "Ġassay": 6516,
      "Ġmtor": 6517,
      "Ġhippocampus": 6518,
      "Ġsatisfactory": 6519,
      "97": 6520,
      "##ophthalm": 6521,
      "Ġremember": 6522,
      "Ġserve": 6523,
      "Ġconsiderably": 6524,
      "Ġspecifically": 6525,
      "Ġapart": 6526,
      "Ġneurocyt": 6527,
      "Ġartific": 6528,
      "Ġcopy": 6529,
      "Ġum": 6530,
      "Ġsun": 6531,
      "Ġpalm": 6532,
      "##racted": 6533,
      "##ruary": 6534,
      "Ġcorn": 6535,
      "Ġnecessarily": 6536,
      "syn": 6537,
      "Ġcallosum": 6538,
      "Ġepithelial": 6539,
      "Ġdistinguished": 6540,
      "Ġcx": 6541,
      "Ġmom": 6542,
      "##oton": 6543,
      "##ayer": 6544,
      "##ette": 6545,
      "Ġcompr": 6546,
      "Ġqual": 6547,
      "Ġacknow": 6548,
      "Ġaffection": 6549,
      "##oplite": 6550,
      "##ulsion": 6551,
      "Ġcrossing": 6552,
      "tubes": 6553,
      "hyp": 6554,
      "Ġwant": 6555,
      "##ilin": 6556,
      "Ġnervus": 6557,
      "Ġarrows": 6558,
      "Ġsubs": 6559,
      "##aching": 6560,
      "Ġ74": 6561,
      "##......": 6562,
      "Ġlocom": 6563,
      "Ġoperative": 6564,
      "Ġhypogloss": 6565,
      "Ġforearm": 6566,
      "Ġregulates": 6567,
      "Ġendothelial": 6568,
      "less": 6569,
      "Ġinstr": 6570,
      "Ġka": 6571,
      "Ġfeeling": 6572,
      "Ġtyros": 6573,
      "Ġfurn": 6574,
      "##oxylin": 6575,
      "##ropic": 6576,
      "Ġstroke": 6577,
      "could": 6578,
      "sign": 6579,
      "##isk": 6580,
      "Ġmh": 6581,
      "Ġwish": 6582,
      "Ġness": 6583,
      "Ġreasons": 6584,
      "Ġlid": 6585,
      "Ġresid": 6586,
      "Ġinstit": 6587,
      "Ġconstitu": 6588,
      "Ġvein": 6589,
      "250": 6590,
      "Ġobjects": 6591,
      "Ġsacral": 6592,
      "Ġenlarged": 6593,
      "ant": 6594,
      "te": 6595,
      "Ġic": 6596,
      "##lich": 6597,
      "##ingly": 6598,
      "Ġwhilst": 6599,
      "âĢ²": 6600,
      "Ġrecomm": 6601,
      "##key": 6602,
      "Ġviews": 6603,
      "Ġproposed": 6604,
      "Ġstrands": 6605,
      "Ġvertebral": 6606,
      "##agittal": 6607,
      "tum": 6608,
      "##well": 6609,
      "Ġdipl": 6610,
      "##igo": 6611,
      "Ġals": 6612,
      "Ġpara": 6613,
      "Ġ110": 6614,
      "Ġ1907": 6615,
      "Ġintegrin": 6616,
      "Ġgermany": 6617,
      "cm": 6618,
      "Ġgan": 6619,
      "Ġrecom": 6620,
      "Ġcancer": 6621,
      "Ġvaries": 6622,
      "Ġincor": 6623,
      "Ġgoing": 6624,
      "Ġdistinctly": 6625,
      "Ġcommissure": 6626,
      "Ġphenomenon": 6627,
      "Ġdendritic": 6628,
      "Ġcongestion": 6629,
      "Ġankle": 6630,
      "pers": 6631,
      "same": 6632,
      "##gcs": 6633,
      "##97": 6634,
      "##icat": 6635,
      "Ġanter": 6636,
      "##ocy": 6637,
      "##uded": 6638,
      "Ġolder": 6639,
      "Ġparesis": 6640,
      "Ġdomains": 6641,
      "Ġuncom": 6642,
      "Ġdilatation": 6643,
      "Ġupregulated": 6644,
      "Ġfluorescent": 6645,
      "Ġwilliam": 6646,
      "##emporal": 6647,
      "Ġadequate": 6648,
      "##iod": 6649,
      "##bour": 6650,
      "Ġbart": 6651,
      "Ġdp": 6652,
      "Ġhope": 6653,
      "Ġsuitable": 6654,
      "Ġsciences": 6655,
      "Ġimmature": 6656,
      "what": 6657,
      "Ġcutting": 6658,
      ".âĢĿ": 6659,
      "Ġmiller": 6660,
      "Ġquickly": 6661,
      "disc": 6662,
      "##ses": 6663,
      "##ris": 6664,
      "##back": 6665,
      "##Âº": 6666,
      "Ġsan": 6667,
      "Ġfawcett": 6668,
      "##osp": 6669,
      "Ġatten": 6670,
      "Ġabstract": 6671,
      "##nea": 6672,
      "Ġremove": 6673,
      "Ġeral": 6674,
      "Ġcurve": 6675,
      "head": 6676,
      "Ġintraspinal": 6677,
      "Ġoxygen": 6678,
      "##ackson": 6679,
      "48": 6680,
      "ever": 6681,
      "rest": 6682,
      "##enn": 6683,
      "Ġfed": 6684,
      "Ġgolgi": 6685,
      "##unks": 6686,
      "Ġproof": 6687,
      "##ourse": 6688,
      "Ġundoubted": 6689,
      "Ġemerg": 6690,
      "Ġoverexp": 6691,
      "before": 6692,
      "Ġearliest": 6693,
      "Ġconsciousness": 6694,
      "Ġmcc": 6695,
      "Ġdc": 6696,
      "##olic": 6697,
      "##ables": 6698,
      "inst": 6699,
      "Ġexpect": 6700,
      "Ġratio": 6701,
      "Ġfuniculus": 6702,
      "##inski": 6703,
      "Ġsensations": 6704,
      "Ġpassive": 6705,
      "Ġconsisting": 6706,
      "Ġvasomotor": 6707,
      "Ġvertebra": 6708,
      "Ġhemisection": 6709,
      "Ġti": 6710,
      "Ġpu": 6711,
      "Ġhrem": 6712,
      "##otted": 6713,
      "Ġrhe": 6714,
      "Ġnotice": 6715,
      "Ġunp": 6716,
      "Ġfunc": 6717,
      "Ġtermination": 6718,
      "Ġpurkinje": 6719,
      "Ġï¬ģrst": 6720,
      "Ġrepresentative": 6721,
      "Ġthorough": 6722,
      "##âĢ¢âĢ¢âĢ¢âĢ¢": 6723,
      "Ġgliosis": 6724,
      "Ġelevated": 6725,
      "Ġxenopus": 6726,
      "03": 6727,
      "much": 6728,
      "tract": 6729,
      "Ġip": 6730,
      "Ġcess": 6731,
      "Ġcost": 6732,
      "Ġdissociated": 6733,
      "Ġgrand": 6734,
      "Ġfeel": 6735,
      "Ġactivities": 6736,
      "Ġsocs": 6737,
      "Ġmilk": 6738,
      "Ġbehavioral": 6739,
      "Ġassumed": 6740,
      "cerebral": 6741,
      "Ġinterpretation": 6742,
      "cylind": 6743,
      "ill": 6744,
      "Ġbcl": 6745,
      "##ancing": 6746,
      "Ġeth": 6747,
      "Ġhat": 6748,
      "Ġist": 6749,
      "##ete": 6750,
      "Ġadopt": 6751,
      "Ġraised": 6752,
      "Ġsubjected": 6753,
      "Ġrates": 6754,
      "Ġbio": 6755,
      "exc": 6756,
      "##roglia": 6757,
      "Ġdenerv": 6758,
      "##uity": 6759,
      "##aid": 6760,
      "##fas": 6761,
      "Ġnystag": 6762,
      "Ġlt": 6763,
      "##uting": 6764,
      "##odes": 6765,
      "##ians": 6766,
      "Ġreflect": 6767,
      "Ġsuddenly": 6768,
      "Ġmetabolism": 6769,
      "https": 6770,
      "mic": 6771,
      "Ġrow": 6772,
      "##iable": 6773,
      "##chi": 6774,
      "Ġconcept": 6775,
      "Ġforamen": 6776,
      "Ġdisk": 6777,
      "Ġcompens": 6778,
      "Ġgeniculate": 6779,
      "Ġcontinuity": 6780,
      "Ġfibrill": 6781,
      "Ġreveal": 6782,
      "Ġrhoa": 6783,
      "Ġperfectly": 6784,
      "Ġseizure": 6785,
      "Ġpreliminary": 6786,
      "##opliteal": 6787,
      "ul": 6788,
      "Ġoh": 6789,
      "Ġcc": 6790,
      "Ġbands": 6791,
      "Ġalbin": 6792,
      "stim": 6793,
      "Ġ125": 6794,
      "Ġinhibited": 6795,
      "Ġdecided": 6796,
      "super": 6797,
      "Ġdetails": 6798,
      "ht": 6799,
      "ke": 6800,
      "##¡ïĿ": 6801,
      "##ulbar": 6802,
      "##ucin": 6803,
      "Ġleave": 6804,
      "Ġaber": 6805,
      "Ġreticular": 6806,
      "Ġarbor": 6807,
      "Ġgenet": 6808,
      "Ġobserve": 6809,
      "Ġcarcin": 6810,
      "conditions": 6811,
      "Ġmelan": 6812,
      "inflammatory": 6813,
      "lim": 6814,
      "Ġ~": 6815,
      "Ġvo": 6816,
      "##ago": 6817,
      "##fection": 6818,
      "Ġ84": 6819,
      "Ġswe": 6820,
      "Ġcorrelation": 6821,
      "irregular": 6822,
      "Ġimplanted": 6823,
      "##ococcus": 6824,
      "##limb": 6825,
      "##cher": 6826,
      "##orge": 6827,
      "##adelph": 6828,
      "Ġaff": 6829,
      "Ġovernight": 6830,
      "Ġcurr": 6831,
      "Ġorganization": 6832,
      "##ahr": 6833,
      "appear": 6834,
      "Ġpopulations": 6835,
      "Ġreplaced": 6836,
      "Ġensheathing": 6837,
      "64": 6838,
      "Ġreduce": 6839,
      "##ilized": 6840,
      "Ġvacc": 6841,
      "Ġexceed": 6842,
      "##phther": 6843,
      "Ġdisinte": 6844,
      "inc": 6845,
      "Ġix": 6846,
      "Ġcontrolled": 6847,
      "anterior": 6848,
      "Ġcharacterization": 6849,
      "Ġventricular": 6850,
      "twenty": 6851,
      "Ġpurely": 6852,
      "Ġcircuit": 6853,
      "Ġneuroprotective": 6854,
      "google": 6855,
      "pract": 6856,
      "Ġmp": 6857,
      "Ġlids": 6858,
      "##omyel": 6859,
      "##aylor": 6860,
      "Ġspite": 6861,
      "##ogram": 6862,
      "Ġyang": 6863,
      "Ġquestions": 6864,
      "Ġaffections": 6865,
      "Ġminor": 6866,
      "##ragm": 6867,
      "Ġsustained": 6868,
      "Ġdefective": 6869,
      "Ġbroken": 6870,
      "##ashi": 6871,
      "Ġnode": 6872,
      "Ġpersonal": 6873,
      "Ġcommunication": 6874,
      "acute": 6875,
      "Ġacetyl": 6876,
      "lo": 6877,
      "Ġure": 6878,
      "##iu": 6879,
      "##¥ïĿ": 6880,
      "Ġcand": 6881,
      "Ġmyel": 6882,
      "Ġhal": 6883,
      "Ġconne": 6884,
      "Ġexhaust": 6885,
      "##cip": 6886,
      "Ġrock": 6887,
      "##itted": 6888,
      "Ġfilaments": 6889,
      "Ġentering": 6890,
      "Ġreaching": 6891,
      "results": 6892,
      "Ġneighbor": 6893,
      "Ġbiomater": 6894,
      "Ġmixture": 6895,
      "Âµ": 6896,
      "##zo": 6897,
      "Ġpc": 6898,
      "Ġlx": 6899,
      "Ġvs": 6900,
      "Ġalt": 6901,
      "##adher": 6902,
      "Ġdepos": 6903,
      "Ġmaintenance": 6904,
      "Ġorganisms": 6905,
      "known": 6906,
      "Ġfacilitate": 6907,
      "Ġabundant": 6908,
      "jun": 6909,
      "Ġcer": 6910,
      "Ġpale": 6911,
      "Ġns": 6912,
      "Ġseventh": 6913,
      "Ġyield": 6914,
      "Ġaccord": 6915,
      "Ġintraocular": 6916,
      "Ġrecords": 6917,
      "Ġalcoholic": 6918,
      "Ġintroduced": 6919,
      "Ġcorrelated": 6920,
      "Ġreconst": 6921,
      "##eper": 6922,
      "Ġtu": 6923,
      "Ġtoes": 6924,
      "##othe": 6925,
      "Ġplaces": 6926,
      "Ġ105": 6927,
      "without": 6928,
      "##1111": 6929,
      "Ġmagnification": 6930,
      "Ġrunning": 6931,
      "prim": 6932,
      "67": 6933,
      "based": 6934,
      "Ġich": 6935,
      "##mark": 6936,
      "Ġinn": 6937,
      "Ġviol": 6938,
      "Ġparalytic": 6939,
      "Ġupward": 6940,
      "conn": 6941,
      "Ġinserted": 6942,
      "Ġepic": 6943,
      "Ġpainful": 6944,
      "Ġopportun": 6945,
      "Ġsigma": 6946,
      "Ġturned": 6947,
      "Ġneuroblasts": 6948,
      "Ġstomach": 6949,
      "Ġdenervated": 6950,
      "Ġ#": 6951,
      "##rs": 6952,
      "##cribed": 6953,
      "##cox": 6954,
      "Ġlm": 6955,
      "##ima": 6956,
      "##oting": 6957,
      "##stream": 6958,
      "Ġspong": 6959,
      "##ortion": 6960,
      "Ġoutline": 6961,
      "Ġcerebrum": 6962,
      "Ġunderstood": 6963,
      "Ġattempts": 6964,
      "muscle": 6965,
      "Ġblocking": 6966,
      "Ġtrochlear": 6967,
      "Ġtuberculosis": 6968,
      "##burgh": 6969,
      "Ġanswer": 6970,
      "number": 6971,
      "him": 6972,
      "ve": 6973,
      "Ġlimits": 6974,
      "Ġaffects": 6975,
      "Ġ1908": 6976,
      "##ische": 6977,
      "##ahl": 6978,
      "Ġfibrin": 6979,
      "Ġlocomotion": 6980,
      "Ġtel": 6981,
      "Ġson": 6982,
      "Ġmck": 6983,
      "##arg": 6984,
      "##anged": 6985,
      "Ġinterst": 6986,
      "Ġenco": 6987,
      "Ġactions": 6988,
      "Ġ79": 6989,
      "Ġbrdu": 6990,
      "particular": 6991,
      "Ġlacking": 6992,
      "##olysis": 6993,
      "Ġfavour": 6994,
      "Ġimplantation": 6995,
      "Ġaccumulation": 6996,
      "macroph": 6997,
      "Ġtyrosine": 6998,
      "##adelphia": 6999,
      "##lated": 7000,
      "##gements": 7001,
      "Ġsd": 7002,
      "Ġbow": 7003,
      "Ġdry": 7004,
      "##ucid": 7005,
      "##illi": 7006,
      "Ġcompound": 7007,
      "Ġprecipit": 7008,
      "##cessary": 7009,
      "Ġbright": 7010,
      "Ġsutured": 7011,
      "Ġoxid": 7012,
      "Ġpurposes": 7013,
      "terminal": 7014,
      "Ġarranged": 7015,
      "##ati": 7016,
      "Ġfold": 7017,
      "Ġlxx": 7018,
      "##igue": 7019,
      "##cha": 7020,
      "Ġshock": 7021,
      "Ġlew": 7022,
      "Ġrays": 7023,
      "##berts": 7024,
      "Ġremod": 7025,
      "Ġ1916": 7026,
      "deficient": 7027,
      "Ġprotoc": 7028,
      "Ġspecificity": 7029,
      "Ġsecreted": 7030,
      "Ġprinciples": 7031,
      "Ġoccupied": 7032,
      "##phy": 7033,
      "Ġretro": 7034,
      "Ġplays": 7035,
      "Ġdesp": 7036,
      "Ġ77": 7037,
      "Ġvaried": 7038,
      "Ġcomplement": 7039,
      "position": 7040,
      "2010": 7041,
      "epile": 7042,
      "Ġpredomin": 7043,
      "##.,": 7044,
      "##icious": 7045,
      "##arter": 7046,
      "##ulent": 7047,
      "##phyl": 7048,
      "Ġhepar": 7049,
      "Ġparalysed": 7050,
      "Ġ82": 7051,
      "Ġagre": 7052,
      "Ġretinae": 7053,
      "Ġcalc": 7054,
      "1986": 7055,
      "Ġaddress": 7056,
      "Ġdissected": 7057,
      "Ġaccompany": 7058,
      "Ġupregulation": 7059,
      "operation": 7060,
      "Ġbesides": 7061,
      "Ġintravitreal": 7062,
      "83": 7063,
      "mod": 7064,
      "optic": 7065,
      "Ġsher": 7066,
      "Ġpric": 7067,
      "##arr": 7068,
      "Ġafford": 7069,
      "##hens": 7070,
      "Ġparticip": 7071,
      "Ġsensit": 7072,
      "##ittm": 7073,
      "Ġcontinue": 7074,
      "Ġinvestigators": 7075,
      "Ġguide": 7076,
      "Ġterminals": 7077,
      "Ġbehavi": 7078,
      "Ġrupt": 7079,
      "Ġaccommodation": 7080,
      "medicine": 7081,
      "life": 7082,
      "Ġtri": 7083,
      "Ġfri": 7084,
      "Ġnr": 7085,
      "##arach": 7086,
      "##ectal": 7087,
      "##etes": 7088,
      "Ġinterface": 7089,
      "##avig": 7090,
      "Ġinvasion": 7091,
      "Ġcountry": 7092,
      "Ġlipid": 7093,
      "Ġmusculo": 7094,
      "Ġescape": 7095,
      "Ġobservers": 7096,
      "hospital": 7097,
      "perm": 7098,
      "##eur": 7099,
      "##62": 7100,
      "Ġbrad": 7101,
      "##idine": 7102,
      "Ġio": 7103,
      "Ġ96": 7104,
      "str": 7105,
      "ass": 7106,
      "Ġinches": 7107,
      "Ġcounts": 7108,
      "Ġberry": 7109,
      "Ġacquired": 7110,
      "Ġdischarge": 7111,
      "nucleus": 7112,
      "important": 7113,
      "und": 7114,
      "##eded": 7115,
      "Ġgot": 7116,
      "Ġbei": 7117,
      "Ġbearing": 7118,
      "Ġdeal": 7119,
      "Ġsyring": 7120,
      "Ġdiab": 7121,
      "Ġvariation": 7122,
      "103": 7123,
      "2001": 7124,
      "Ġpsychoses": 7125,
      "Ġ1905": 7126,
      "Ġtectal": 7127,
      "ber": 7128,
      "cr": 7129,
      "##lems": 7130,
      "Ġfort": 7131,
      "Ġsett": 7132,
      "Ġtwice": 7133,
      "Ġschem": 7134,
      "Ġ93": 7135,
      "Ġpromoted": 7136,
      "Ġtender": 7137,
      "##aux": 7138,
      "Ġpsychiatry": 7139,
      "##istered": 7140,
      "##orbed": 7141,
      "Ġattributed": 7142,
      "Ġpel": 7143,
      "##tered": 7144,
      "Ġrn": 7145,
      "Ġchart": 7146,
      "##ested": 7147,
      "inf": 7148,
      "Ġyour": 7149,
      "Ġthereby": 7150,
      "Ġmob": 7151,
      "Ġsmo": 7152,
      "Ġstrittm": 7153,
      "Ġcontribution": 7154,
      "Ġdilated": 7155,
      "Ġdiscovery": 7156,
      "##oglob": 7157,
      "Ġfluorescence": 7158,
      "Ġparenchym": 7159,
      "69": 7160,
      "days": 7161,
      "year": 7162,
      "Ġtory": 7163,
      "Ġoffer": 7164,
      "Ġintens": 7165,
      "Ġremak": 7166,
      "arter": 7167,
      "Ġguinea": 7168,
      "region": 7169,
      "##ifying": 7170,
      "Ġcircumstances": 7171,
      "Ġfebruary": 7172,
      "Ġalbino": 7173,
      "79": 7174,
      "cause": 7175,
      "##atically": 7176,
      "Ġreorgan": 7177,
      "Ġviii": 7178,
      "##unn": 7179,
      "Ġchain": 7180,
      "Ġthickened": 7181,
      "Ġmutants": 7182,
      "##hetized": 7183,
      "Ġveloc": 7184,
      "08": 7185,
      "##wart": 7186,
      "Ġwest": 7187,
      "##phragm": 7188,
      "##atever": 7189,
      "Ġheav": 7190,
      "Ġinterle": 7191,
      "2002": 7192,
      "Ġtherap": 7193,
      "Ġinfected": 7194,
      "report": 7195,
      "Ġapex": 7196,
      "Ġstrittmatter": 7197,
      "Ġcas": 7198,
      "Ġdens": 7199,
      "Ġreag": 7200,
      "##ifferent": 7201,
      "##alling": 7202,
      "##api": 7203,
      "Ġmeyer": 7204,
      "conj": 7205,
      "ann": 7206,
      "Ġconstitution": 7207,
      "Ġconstantly": 7208,
      "Ġfavorable": 7209,
      "Ġartificial": 7210,
      "cat": 7211,
      "##heim": 7212,
      "Ġwind": 7213,
      "Ġbirds": 7214,
      "Ġanova": 7215,
      "##ects": 7216,
      "Ġarrest": 7217,
      "Ġmoved": 7218,
      "Ġfeeb": 7219,
      "Ġ106": 7220,
      "Ġ109": 7221,
      "Ġovercome": 7222,
      "Ġinco": 7223,
      "##versely": 7224,
      "2013": 7225,
      "Ġideas": 7226,
      "Ġmanifestations": 7227,
      "Ġjohnson": 7228,
      ",'": 7229,
      "##oks": 7230,
      "Ġinver": 7231,
      "Ġlact": 7232,
      "Ġchic": 7233,
      "##ugal": 7234,
      "Ġyu": 7235,
      "stat": 7236,
      "##napt": 7237,
      "although": 7238,
      "Ġdivisions": 7239,
      "Ġcircular": 7240,
      "Ġmeasures": 7241,
      "Ġvariations": 7242,
      "Ġencephalitis": 7243,
      "Ġhypoglossal": 7244,
      "Ġaphasia": 7245,
      "Ġpopliteal": 7246,
      "Ġvacu": 7247,
      "##ows": 7248,
      "Ġindepend": 7249,
      "Ġsubd": 7250,
      "##itish": 7251,
      "Ġtional": 7252,
      "Ġ1981": 7253,
      "Ġdiagnostic": 7254,
      "Ġhereditary": 7255,
      "origin": 7256,
      "Ġchorea": 7257,
      "##men": 7258,
      "##nis": 7259,
      "Ġtact": 7260,
      "##isen": 7261,
      "##oustic": 7262,
      "Ġunf": 7263,
      "Ġefficient": 7264,
      "Ġages": 7265,
      "Ġretinot": 7266,
      "Ġembedded": 7267,
      "Ġsubjects": 7268,
      "Ġuncrossed": 7269,
      "Ġalteration": 7270,
      "Ġcontrary": 7271,
      "Ġchondroitinase": 7272,
      "reaction": 7273,
      "##artilage": 7274,
      "Ġirradiation": 7275,
      "89": 7276,
      "93": 7277,
      "Ġaw": 7278,
      "Ġwomen": 7279,
      "##arches": 7280,
      "them": 7281,
      "##undred": 7282,
      "Ġcarotid": 7283,
      "Ġ78": 7284,
      "Ġ;:;": 7285,
      "Ġrela": 7286,
      "Ġ108": 7287,
      "Ġmont": 7288,
      "##remia": 7289,
      "Ġsutures": 7290,
      "Ġcomparable": 7291,
      "##arynx": 7292,
      "Ġambly": 7293,
      "Ġunusual": 7294,
      "Ġnystagmus": 7295,
      "##zheimer": 7296,
      "Ġod": 7297,
      "##uria": 7298,
      "Ġwithdra": 7299,
      "Ġproblems": 7300,
      "130": 7301,
      "Ġgoat": 7302,
      "Ġflexor": 7303,
      "Ġwilliams": 7304,
      "Ġbenefit": 7305,
      "Ġanlage": 7306,
      "##arachn": 7307,
      "##ev": 7308,
      "##51": 7309,
      "##erine": 7310,
      "Ġcit": 7311,
      "Ġwu": 7312,
      "Ġcompare": 7313,
      "Ġmediate": 7314,
      "Ġ67": 7315,
      "Ġsymmet": 7316,
      "Ġobsc": 7317,
      "Ġemer": 7318,
      "##ructive": 7319,
      "Ġ1983": 7320,
      "Ġmax": 7321,
      "degeneration": 7322,
      "Ġkinds": 7323,
      "Ġligands": 7324,
      "Ġelsewhere": 7325,
      "Ġprecursor": 7326,
      "Ġpolymorph": 7327,
      "rd": 7328,
      "Ġanderson": 7329,
      "Ġlan": 7330,
      "Ġoutcome": 7331,
      "Ġaccident": 7332,
      "Ġsimpl": 7333,
      "Ġassume": 7334,
      "area": 7335,
      "period": 7336,
      "##ophag": 7337,
      "2011": 7338,
      "Ġbrachial": 7339,
      "Ġgastric": 7340,
      "Ġelicited": 7341,
      "Ġpregn": 7342,
      "Ġsurprising": 7343,
      "Ġautoimmune": 7344,
      "Ġacknowled": 7345,
      "Ġrecombin": 7346,
      "##rous": 7347,
      "Ġfraction": 7348,
      "Ġspind": 7349,
      "Ġjw": 7350,
      "Ġking": 7351,
      "##ulty": 7352,
      "Ġinvari": 7353,
      "Ġdepression": 7354,
      "deg": 7355,
      "Ġdefinition": 7356,
      "Ġdecomp": 7357,
      "Ġmerc": 7358,
      "Ġasylums": 7359,
      "hyd": 7360,
      "Ġprojecting": 7361,
      "Ġexaggerated": 7362,
      "Ġattenu": 7363,
      "far": 7364,
      "##ries": 7365,
      "Ġtus": 7366,
      "Ġsider": 7367,
      "Ġcot": 7368,
      "Ġcicat": 7369,
      "Ġreh": 7370,
      "##ush": 7371,
      "Ġdiencephalon": 7372,
      "Ġamino": 7373,
      "Ġprevents": 7374,
      "Ġpurified": 7375,
      "##ukin": 7376,
      "Ġfifty": 7377,
      "Ġelongated": 7378,
      "Ġfrank": 7379,
      "Ġaccurate": 7380,
      "every": 7381,
      "aut": 7382,
      "ste": 7383,
      "##kins": 7384,
      "##zi": 7385,
      "Ġara": 7386,
      "Ġinput": 7387,
      "Ġated": 7388,
      "##aka": 7389,
      "Ġ86": 7390,
      "Ġmostly": 7391,
      "Ġ1982": 7392,
      "Ġinside": 7393,
      "Ġ130": 7394,
      "Ġsurviving": 7395,
      "##ducens": 7396,
      "Ġmember": 7397,
      "Ġsubcutaneous": 7398,
      "-,": 7399,
      "good": 7400,
      "kg": 7401,
      "pe": 7402,
      "Ġ|": 7403,
      "##bral": 7404,
      "##gt": 7405,
      "##inence": 7406,
      "##rect": 7407,
      "Ġcytes": 7408,
      "Ġinability": 7409,
      "Ġstup": 7410,
      "Ġproxim": 7411,
      "Ġspect": 7412,
      "Ġiq": 7413,
      "Ġ180": 7414,
      "##sociation": 7415,
      "##ieties": 7416,
      "Ġpolymer": 7417,
      "Ġcounty": 7418,
      "Ġselect": 7419,
      "Ġisolation": 7420,
      "Ġworld": 7421,
      "Ġspreading": 7422,
      "##midt": 7423,
      "##zyns": 7424,
      "green": 7425,
      "Ġcalculated": 7426,
      "Ġweigert": 7427,
      "##ellig": 7428,
      "##uman": 7429,
      "Ġkle": 7430,
      "Ġ88": 7431,
      "Ġ87": 7432,
      "Ġcorpor": 7433,
      "Ġsuggestion": 7434,
      "Ġtesting": 7435,
      "Ġelectroph": 7436,
      "Ġacidic": 7437,
      "Ġcontracted": 7438,
      "Ġsenile": 7439,
      "Ġrectus": 7440,
      "02": 7441,
      "##uis": 7442,
      "##rast": 7443,
      "##ws": 7444,
      "Ġous": 7445,
      "Ġdoc": 7446,
      "Ġreverse": 7447,
      "##vex": 7448,
      "then": 7449,
      "Ġparietal": 7450,
      "Ġcomposition": 7451,
      "##aterals": 7452,
      "Ġencl": 7453,
      "##atics": 7454,
      "Ġophthalmol": 7455,
      "Ġaggreg": 7456,
      "Ġstatistical": 7457,
      "clinical": 7458,
      "Ġamphib": 7459,
      "po": 7460,
      "Ġtric": 7461,
      "Ġsi": 7462,
      "Ġborn": 7463,
      "##anus": 7464,
      "##ceived": 7465,
      "Ġneurode": 7466,
      "Ġincidence": 7467,
      "Ġbrief": 7468,
      "Ġrestored": 7469,
      "Ġinfluences": 7470,
      "Ġsources": 7471,
      "insanity": 7472,
      "##irable": 7473,
      "Ġgalvanic": 7474,
      "Ġrecruit": 7475,
      "Ġastrocytic": 7476,
      "58": 7477,
      "direct": 7478,
      "Ġence": 7479,
      "##rific": 7480,
      "##ience": 7481,
      "Ġtaylor": 7482,
      "Ġdim": 7483,
      "##osen": 7484,
      "##rapy": 7485,
      "##illing": 7486,
      "Ġtransition": 7487,
      "Ġproperly": 7488,
      "Ġallows": 7489,
      "##adherin": 7490,
      "'-": 7491,
      "div": 7492,
      "sug": 7493,
      "Ġserved": 7494,
      "##oli": 7495,
      "##eller": 7496,
      "Ġrud": 7497,
      "Ġ92": 7498,
      "Ġfaradic": 7499,
      "Ġmesencephalon": 7500,
      "special": 7501,
      "Ġperfor": 7502,
      "Ġexcessive": 7503,
      "estab": 7504,
      "Ġdespite": 7505,
      "our": 7506,
      "ver": 7507,
      "Ġok": 7508,
      "##uscript": 7509,
      "Ġexogenous": 7510,
      "Ġalve": 7511,
      "##iring": 7512,
      "##abe": 7513,
      "Ġperoneal": 7514,
      "Ġrough": 7515,
      "Ġblot": 7516,
      "Ġdurch": 7517,
      "Ġscars": 7518,
      "Ġphotograph": 7519,
      "Ġsurgeons": 7520,
      "Ġmicrotubule": 7521,
      "cj": 7522,
      "cur": 7523,
      "egfp": 7524,
      "Ġ01": 7525,
      "##ef": 7526,
      "##ming": 7527,
      "##\\)": 7528,
      "##atives": 7529,
      "Ġpas": 7530,
      "Ġfusion": 7531,
      "Ġlungs": 7532,
      "Ġhot": 7533,
      "##omata": 7534,
      "Ġye": 7535,
      "##orsal": 7536,
      "Ġclot": 7537,
      "Ġremarks": 7538,
      "##ceptive": 7539,
      "Ġfoundation": 7540,
      "Ġimmers": 7541,
      "Ġadvent": 7542,
      "Ġhypothalam": 7543,
      "Ġnaturally": 7544,
      "leg": 7545,
      "Ġfoci": 7546,
      "Ġphiladelphia": 7547,
      "Ġblocked": 7548,
      "probably": 7549,
      "Ġmotoneurons": 7550,
      "Ġmoment": 7551,
      "'.": 7552,
      "Ġtran": 7553,
      "##iner": 7554,
      "##isons": 7555,
      "Ġmscs": 7556,
      "Ġnur": 7557,
      "Ġhunter": 7558,
      "##sthesia": 7559,
      "Ġrc": 7560,
      "ĠÂ©": 7561,
      "Ġentry": 7562,
      "##embrane": 7563,
      "##--------": 7564,
      "Ġdelivered": 7565,
      "Ġinterleukin": 7566,
      "##arachnoid": 7567,
      "seen": 7568,
      "Ġtan": 7569,
      "##encing": 7570,
      "##isher": 7571,
      "Ġnu": 7572,
      "Ġhouse": 7573,
      "##ims": 7574,
      "##imp": 7575,
      "##ades": 7576,
      "Ġkit": 7577,
      "Ġsham": 7578,
      "Ġlargest": 7579,
      "Ġmodulation": 7580,
      "Ġcharles": 7581,
      "##ogenetic": 7582,
      "complete": 7583,
      "spiral": 7584,
      "Ġpotentials": 7585,
      "Ġcorpuscles": 7586,
      "Ġramus": 7587,
      "Ġneurofil": 7588,
      "Ġexclusively": 7589,
      "Ġundoubtedly": 7590,
      "##zynski": 7591,
      "300": 7592,
      "cns": 7593,
      "tend": 7594,
      "##hol": 7595,
      "##lo": 7596,
      "##icus": 7597,
      "Ġabd": 7598,
      "Ġscot": 7599,
      "##ecs": 7600,
      "Ġdifferentially": 7601,
      "Ġeduc": 7602,
      "Ġobjective": 7603,
      "Ġsoftware": 7604,
      "Ġconcluded": 7605,
      "Ġdescribe": 7606,
      "Ġï": 7607,
      "##bell": 7608,
      "##48": 7609,
      "Ġtight": 7610,
      "Ġcity": 7611,
      "Ġmb": 7612,
      "Ġderm": 7613,
      "##iva": 7614,
      "##ovich": 7615,
      "Ġconsisted": 7616,
      "Ġdetermining": 7617,
      "parts": 7618,
      "Ġsucceed": 7619,
      "course": 7620,
      "met": 7621,
      "##tp": 7622,
      "Ġtnf": 7623,
      "Ġoval": 7624,
      "Ġfate": 7625,
      "Ġlung": 7626,
      "Ġkda": 7627,
      "Ġ102": 7628,
      "Ġstrip": 7629,
      "Ġglobules": 7630,
      "hyper": 7631,
      "Ġmusculature": 7632,
      "Ġhemorrhages": 7633,
      "##rey": 7634,
      "Ġwer": 7635,
      "##ivary": 7636,
      "Ġatroph": 7637,
      "##ressions": 7638,
      "Ġpatches": 7639,
      "##oston": 7640,
      "Ġ.,": 7641,
      "Ġintox": 7642,
      "Ġenerg": 7643,
      "Ġanything": 7644,
      "Ġstimulates": 7645,
      "Ġadjust": 7646,
      "Ġintegrins": 7647,
      "Ġchromat": 7648,
      "Ġassessed": 7649,
      "##owsky": 7650,
      "Ġpresumably": 7651,
      "##asthenia": 7652,
      "Ġsmooth": 7653,
      "Ġscre": 7654,
      "Ġger": 7655,
      "##oste": 7656,
      "Ġwhatever": 7657,
      "child": 7658,
      "prot": 7659,
      "Ġmigrate": 7660,
      "used": 7661,
      "Ġobviously": 7662,
      "development": 7663,
      "Ġninian": 7664,
      "Ġgangliosides": 7665,
      "promoting": 7666,
      "action": 7667,
      "either": 7668,
      "ma": 7669,
      "Ġfow": 7670,
      "Ġfischer": 7671,
      "Ġhip": 7672,
      "##osse": 7673,
      "Ġ(;": 7674,
      "##otrophic": 7675,
      "##utt": 7676,
      "Ġva": 7677,
      "Ġanemia": 7678,
      "inhib": 7679,
      "Ġroll": 7680,
      "Ġ,(": 7681,
      "Ġinfre": 7682,
      "Ġlaid": 7683,
      "Ġcycle": 7684,
      "Ġhydrog": 7685,
      "Ġbulbar": 7686,
      "ĠÎ±": 7687,
      "Ġversus": 7688,
      "Ġhybridization": 7689,
      "##rographs": 7690,
      "##xia": 7691,
      "Ġvor": 7692,
      "Ġalzheimer": 7693,
      "Ġacoustic": 7694,
      "Ġsystemic": 7695,
      "Ġ183": 7696,
      "Ġ:::": 7697,
      "Ġseroton": 7698,
      "Ġmassage": 7699,
      "Ġhardly": 7700,
      "processes": 7701,
      "Ġ;:;:": 7702,
      "##vin": 7703,
      "##inus": 7704,
      "##idase": 7705,
      "##agues": 7706,
      "Ġray": 7707,
      "Ġtrunks": 7708,
      "Ġpsychosis": 7709,
      "Ġdownward": 7710,
      "Ġrhyth": 7711,
      "Ġreduces": 7712,
      "Ġclassification": 7713,
      "regulation": 7714,
      "Ġosmic": 7715,
      "Ġalternative": 7716,
      "Ġforceps": 7717,
      "##rigem": 7718,
      "##luores": 7719,
      "Ġdecussation": 7720,
      "sometimes": 7721,
      "##des": 7722,
      "##72": 7723,
      "##encies": 7724,
      "Ġhart": 7725,
      "Ġhams": 7726,
      "##imental": 7727,
      "Ġvii": 7728,
      "Ġcondu": 7729,
      "##ston": 7730,
      "##opsis": 7731,
      "Ġadrenal": 7732,
      "Ġcohen": 7733,
      "Ġschnell": 7734,
      "Ġ121": 7735,
      "Ġprotective": 7736,
      "Ġbda": 7737,
      "Ġmesencephalic": 7738,
      "Ġsemi": 7739,
      "Ġhallucin": 7740,
      "##opsia": 7741,
      "Ġneurocytol": 7742,
      "##omyelia": 7743,
      "each": 7744,
      "early": 7745,
      "fold": 7746,
      "ra": 7747,
      "##rt": 7748,
      "##mc": 7749,
      "Ġsend": 7750,
      "##stance": 7751,
      "Ġabducens": 7752,
      "##ceptor": 7753,
      "Ġganglionic": 7754,
      "Ġcollaterals": 7755,
      "Ġgrant": 7756,
      "Ġstatus": 7757,
      "Ġmales": 7758,
      "Ġentered": 7759,
      "Ġangi": 7760,
      "Ġprevented": 7761,
      "Ġdiaphragm": 7762,
      "##ying": 7763,
      "##erus": 7764,
      "Ġbov": 7765,
      "##otoxic": 7766,
      "Ġance": 7767,
      "Ġdeeper": 7768,
      "Ġstiff": 7769,
      "##amental": 7770,
      "Ġgram": 7771,
      "Ġ98": 7772,
      "Ġmodification": 7773,
      "Ġpression": 7774,
      "Ġsupporting": 7775,
      "##inking": 7776,
      "Ġbray": 7777,
      "Ġnodes": 7778,
      "Ġprinciple": 7779,
      "Ġencour": 7780,
      "Ġeventually": 7781,
      "Ġinterstitial": 7782,
      "care": 7783,
      "light": 7784,
      "opp": 7785,
      "##yd": 7786,
      "##born": 7787,
      "Ġsj": 7788,
      "Ġsis": 7789,
      "##atis": 7790,
      "##ito": 7791,
      "Ġfra": 7792,
      "Ġlif": 7793,
      "Ġhorm": 7794,
      "Ġbear": 7795,
      "Ġjackson": 7796,
      "Ġchoked": 7797,
      "##rance": 7798,
      "##iller": 7799,
      "Ġactin": 7800,
      "Ġsole": 7801,
      "Ġdevelops": 7802,
      "Ġbecoming": 7803,
      "Ġcollect": 7804,
      "Ġtyphoid": 7805,
      "Ġevidently": 7806,
      "Ġlooked": 7807,
      "Ġterminalis": 7808,
      "Ġsuccessfully": 7809,
      "Ġresemble": 7810,
      "Ġvenous": 7811,
      "Ġprecursors": 7812,
      "rad": 7813,
      "##bi": 7814,
      "Ġtang": 7815,
      "Ġbreat": 7816,
      "Ġdor": 7817,
      "Ġhir": 7818,
      "##cht": 7819,
      "Ġri": 7820,
      "Ġshorter": 7821,
      "includ": 7822,
      "Ġdiphther": 7823,
      "Ġdoct": 7824,
      "##eck": 7825,
      "Ġappearances": 7826,
      "Ġmaturation": 7827,
      "Ġexisting": 7828,
      "Ġfamil": 7829,
      "Ġplexuses": 7830,
      "Ġwriter": 7831,
      "Ġmounted": 7832,
      "Ġclarke": 7833,
      "52": 7834,
      "88": 7835,
      "possible": 7836,
      "##la": 7837,
      "##onin": 7838,
      "Ġmast": 7839,
      "##ana": 7840,
      "Ġease": 7841,
      "##iments": 7842,
      "Ġstrict": 7843,
      "Ġimplicated": 7844,
      "Ġstudent": 7845,
      "Ġadults": 7846,
      "Ġserial": 7847,
      "133": 7848,
      "Ġinvestigate": 7849,
      "Ġtechniques": 7850,
      "Ġworse": 7851,
      "Ġseptum": 7852,
      "transplant": 7853,
      "Ġwriters": 7854,
      "Ġconducted": 7855,
      "does": 7856,
      "Ġhabit": 7857,
      "Ġspecimen": 7858,
      "Ġdrops": 7859,
      "##inction": 7860,
      "##inergic": 7861,
      "Ġnose": 7862,
      "Ġeine": 7863,
      "##olly": 7864,
      "Ġvic": 7865,
      "Ġdead": 7866,
      "Ġjc": 7867,
      "Ġsynapt": 7868,
      "Ġ400": 7869,
      "Ġmanuscript": 7870,
      "##ammation": 7871,
      "Ġirid": 7872,
      "always": 7873,
      "atrophy": 7874,
      "Ġdyst": 7875,
      "##ochond": 7876,
      "Ġbony": 7877,
      "following": 7878,
      "Ġphosphatase": 7879,
      "Ġuncommon": 7880,
      "Ġepicenter": 7881,
      "Ġencounter": 7882,
      "04": 7883,
      "cir": 7884,
      "little": 7885,
      "Ġ$": 7886,
      "##oa": 7887,
      "##sa": 7888,
      "Ġcran": 7889,
      "Ġmos": 7890,
      "Ġbic": 7891,
      "Ġlit": 7892,
      "Ġhundred": 7893,
      "Ġ195": 7894,
      "Ġcoming": 7895,
      "Ġunique": 7896,
      "Ġplaster": 7897,
      "##ractive": 7898,
      "Ġcoun": 7899,
      "Ġacceler": 7900,
      "Ġ1980": 7901,
      "neg": 7902,
      "Ġsurvive": 7903,
      "Ġdownreg": 7904,
      "Ġresearches": 7905,
      "expressing": 7906,
      "Ġtrka": 7907,
      "Ġdescribes": 7908,
      "Ġincorpor": 7909,
      "##ih": 7910,
      "##jection": 7911,
      "Ġcere": 7912,
      "##asia": 7913,
      "##entery": 7914,
      "Ġabc": 7915,
      "Ġsuppress": 7916,
      "stage": 7917,
      "Ġdirections": 7918,
      "Ġï¬ģb": 7919,
      "##olytic": 7920,
      "##roxys": 7921,
      "Ġmartin": 7922,
      "Ġvelocity": 7923,
      "Ġmess": 7924,
      "Ġdna": 7925,
      "##entral": 7926,
      "Ġgar": 7927,
      "Ġhay": 7928,
      "##olip": 7929,
      "Ġration": 7930,
      "##ivated": 7931,
      "Ġatrop": 7932,
      "Ġcomplicated": 7933,
      "Ġtransp": 7934,
      "Ġ94": 7935,
      "##iscus": 7936,
      "Ġreading": 7937,
      "Ġsacrific": 7938,
      "Ġanaemia": 7939,
      "again": 7940,
      "87": 7941,
      "pig": 7942,
      "##rite": 7943,
      "##ffer": 7944,
      "##²ïĿ": 7945,
      "##ional": 7946,
      "##eless": 7947,
      "Ġwasting": 7948,
      "Ġjames": 7949,
      "Ġperineur": 7950,
      "Ġresc": 7951,
      "Ġarsen": 7952,
      "##assium": 7953,
      "##igned": 7954,
      "Ġillum": 7955,
      "Ġpublication": 7956,
      "Ġarterios": 7957,
      "##atories": 7958,
      "Ġcorresponds": 7959,
      "##Â·Â·": 7960,
      "Ġtranscript": 7961,
      "##anglionic": 7962,
      "Ġranvier": 7963,
      "Ġdegradation": 7964,
      "Ġrandom": 7965,
      "Ġtuszynski": 7966,
      "Ġcul": 7967,
      "##elli": 7968,
      "Ġsheep": 7969,
      "Ġ123": 7970,
      "Ġ115": 7971,
      "neu": 7972,
      "Ġfinds": 7973,
      "Ġlymphocytes": 7974,
      "Ġnodules": 7975,
      "Ġdoubtful": 7976,
      "Ġbalance": 7977,
      "Ġemotional": 7978,
      "Ġbott": 7979,
      "##omb": 7980,
      "##osal": 7981,
      "##umain": 7982,
      "Ġchabc": 7983,
      "Ġkr": 7984,
      "##ocereb": 7985,
      "##ineal": 7986,
      "Ġcovers": 7987,
      "Ġthanos": 7988,
      "Ġtegment": 7989,
      "Ġmetast": 7990,
      "Ġgoes": 7991,
      "ĠÂµg": 7992,
      "Ġhypertrophy": 7993,
      "Ġ,(\\)": 7994,
      "given": 7995,
      "##kal": 7996,
      "Ġtess": 7997,
      "Ġwent": 7998,
      "Ġfram": 7999,
      "Ġlind": 8000,
      "Ġcoup": 8001,
      "Ġcoinc": 8002,
      "Ġagree": 8003,
      "Ġfunctionally": 8004,
      "Ġindications": 8005,
      "Ġreceives": 8006,
      "arrow": 8007,
      "Ġdepending": 8008,
      "regulated": 8009,
      "gener": 8010,
      "Ġdysp": 8011,
      "Ġinfantile": 8012,
      "Ġting": 8013,
      "Ġpg": 8014,
      "Ġdanger": 8015,
      "Ġaffinity": 8016,
      "ĠÂ°": 8017,
      "ord": 8018,
      "Ġlimiting": 8019,
      "prof": 8020,
      "2008": 8021,
      "Ġphosphate": 8022,
      "Ġregulatory": 8023,
      "Ġthickening": 8024,
      "Ġconcentrations": 8025,
      "Ġinoculation": 8026,
      "Ġvestibular": 8027,
      "fa": 8028,
      "##tes": 8029,
      "##eness": 8030,
      "Ġsto": 8031,
      "Ġont": 8032,
      "##ads": 8033,
      "Ġseptic": 8034,
      "Ġinterfer": 8035,
      "Ġgluc": 8036,
      "Ġacting": 8037,
      "Ġ97": 8038,
      "Ġslides": 8039,
      "Ġrestore": 8040,
      "1985": 8041,
      "Ġlegumain": 8042,
      "Ġtendons": 8043,
      "Ġreceiving": 8044,
      "Ġcomparatively": 8045,
      "place": 8046,
      "Ġstanding": 8047,
      "Ġfluor": 8048,
      "Ġcrest": 8049,
      "Ġerrors": 8050,
      "Ġcysts": 8051,
      "Ġganglioside": 8052,
      "##location": 8053,
      "Ġaccompl": 8054,
      "Ġanterog": 8055,
      "ray": 8056,
      "##point": 8057,
      "Ġog": 8058,
      "Ġpra": 8059,
      "Ġnscs": 8060,
      "##osso": 8061,
      "##romal": 8062,
      "internal": 8063,
      "innervation": 8064,
      "Ġunfort": 8065,
      "Ġpole": 8066,
      "Ġ104": 8067,
      "Ġbritish": 8068,
      "Ġepi": 8069,
      "Ġimproves": 8070,
      ".).": 8071,
      "Ġconflic": 8072,
      "##missions": 8073,
      "Ġlineage": 8074,
      "Ġcontributions": 8075,
      "Ġanesthetized": 8076,
      "Ġassumption": 8077,
      "Ġestimated": 8078,
      "##ogeneous": 8079,
      "Ġâĸ": 8080,
      "Ġependymal": 8081,
      "stained": 8082,
      "##ui": 8083,
      "Ġbus": 8084,
      "##rotic": 8085,
      "##arb": 8086,
      "##omet": 8087,
      "##omatous": 8088,
      "Ġviz": 8089,
      "Ġdisruption": 8090,
      "##ometer": 8091,
      "Ġexpans": 8092,
      "##ologist": 8093,
      "Ġplos": 8094,
      "Ġpret": 8095,
      "third": 8096,
      "##bital": 8097,
      "Ġpupillary": 8098,
      "Ġseparation": 8099,
      "Ġultimately": 8100,
      "organic": 8101,
      "Ġabsolutely": 8102,
      "equ": 8103,
      "eight": 8104,
      "Ġmbp": 8105,
      "Ġfal": 8106,
      "##otent": 8107,
      "Ġrid": 8108,
      "Ġchir": 8109,
      "##ipz": 8110,
      "Ġarth": 8111,
      "2009": 8112,
      "Ġsalvarsan": 8113,
      "Ġdigitized": 8114,
      "Ġneurobiology": 8115,
      "Ġpolarization": 8116,
      "because": 8117,
      "Ġelevation": 8118,
      "Ġanastomosis": 8119,
      "Ġeighth": 8120,
      "Ġimmunohistochemistry": 8121,
      "growth": 8122,
      "rich": 8123,
      "##hal": 8124,
      "Ġpear": 8125,
      "##ese": 8126,
      "Ġmj": 8127,
      "##otal": 8128,
      "Ġcoag": 8129,
      "Ġmodern": 8130,
      "Ġcrushing": 8131,
      "Ġprofiles": 8132,
      "Ġgeorge": 8133,
      "Ġadministered": 8134,
      "Ġachieved": 8135,
      "Ġcomplained": 8136,
      "sigma": 8137,
      "pur": 8138,
      "##inity": 8139,
      "##itching": 8140,
      "##ords": 8141,
      "Ġsyner": 8142,
      "Ġrecording": 8143,
      "Ġending": 8144,
      "Ġpriv": 8145,
      "Ġ1911": 8146,
      "Ġtermed": 8147,
      "##---": 8148,
      "Ġneuralgia": 8149,
      "##radely": 8150,
      "Ġtargeting": 8151,
      "Ġlikewise": 8152,
      "Ġdeviation": 8153,
      "Ġinitially": 8154,
      "Ġneedle": 8155,
      "Ġoriginally": 8156,
      "Ġross": 8157,
      "emb": 8158,
      "Ġcarcinoma": 8159,
      "suggest": 8160,
      "+/": 8161,
      "ig": 8162,
      "##han": 8163,
      "##rinsic": 8164,
      "##xin": 8165,
      "Ġtone": 8166,
      "Ġcune": 8167,
      "Ġlg": 8168,
      "##olism": 8169,
      "##unately": 8170,
      "Ġstation": 8171,
      "Ġunits": 8172,
      "Ġpositions": 8173,
      "Ġnumb": 8174,
      "Ġtrial": 8175,
      "chronic": 8176,
      "change": 8177,
      "resp": 8178,
      "blue": 8179,
      "control": 8180,
      "Ġmilitary": 8181,
      "Ġneighbour": 8182,
      "##heads": 8183,
      "Ġamputation": 8184,
      "cortex": 8185,
      "##bertson": 8186,
      "Ġreorganization": 8187,
      "##ta": 8188,
      "##15": 8189,
      "Ġcn": 8190,
      "Ġboston": 8191,
      "Ġlett": 8192,
      "Ġspiral": 8193,
      "Ġimpact": 8194,
      "Ġ140": 8195,
      "Ġabsorption": 8196,
      "Ġhistology": 8197,
      "Ġedin": 8198,
      "peripheral": 8199,
      "1000": 8200,
      "muscular": 8201,
      "difficult": 8202,
      "Ġpsychiatric": 8203,
      "##neuritis": 8204,
      "data": 8205,
      "vis": 8206,
      "##the": 8207,
      "##ares": 8208,
      "Ġpm": 8209,
      "Ġlist": 8210,
      "Ġstream": 8211,
      "Ġforn": 8212,
      "##ptive": 8213,
      "Ġchains": 8214,
      "Ġnotes": 8215,
      "Ġdiscs": 8216,
      "Ġneurore": 8217,
      "Ġappend": 8218,
      "##ologies": 8219,
      "##astric": 8220,
      "Ġschmidt": 8221,
      "Ġliqu": 8222,
      "2006": 8223,
      "Ġsolutions": 8224,
      "Ġuntreated": 8225,
      "Ġirritability": 8226,
      "Ġincubation": 8227,
      "Ġcryst": 8228,
      "Ġfundamental": 8229,
      "Ġindependently": 8230,
      "'t": 8231,
      ".......": 8232,
      "76": 8233,
      "rare": 8234,
      "sanz": 8235,
      "Ġaqu": 8236,
      "Ġmab": 8237,
      "Ġmary": 8238,
      "##itect": 8239,
      "Ġdar": 8240,
      "Ġhur": 8241,
      "##ulates": 8242,
      "Ġjak": 8243,
      "##illus": 8244,
      "Ġunit": 8245,
      "Ġprem": 8246,
      "2007": 8247,
      "Ġacids": 8248,
      "Ġarterial": 8249,
      "Ġgrasp": 8250,
      "injured": 8251,
      "Ġlaboratories": 8252,
      "root": 8253,
      "Ġstrategy": 8254,
      "know": 8255,
      "Ġmetabolic": 8256,
      "Ġcentrif": 8257,
      "Ġpseudo": 8258,
      "elect": 8259,
      "spl": 8260,
      "said": 8261,
      "##mes": 8262,
      "Ġfried": 8263,
      "##owitz": 8264,
      "Ġstains": 8265,
      "Ġatrophic": 8266,
      "##ugated": 8267,
      "Ġdiscre": 8268,
      "##epit": 8269,
      "exist": 8270,
      "Ġextensively": 8271,
      "##auer": 8272,
      "Ġï¬ģg": 8273,
      "##sky": 8274,
      "Ġboard": 8275,
      "Ġattempted": 8276,
      "Ġtrouble": 8277,
      "Ġconjunctivitis": 8278,
      "lesions": 8279,
      "Ġpoisoning": 8280,
      "Ġbabinski": 8281,
      "Ġabolished": 8282,
      "Ġdelirium": 8283,
      "Ġenergy": 8284,
      "68": 8285,
      "upper": 8286,
      "##aque": 8287,
      "Ġbox": 8288,
      "Ġbern": 8289,
      "##ulus": 8290,
      "##umm": 8291,
      "##agement": 8292,
      "Ġperox": 8293,
      "##oren": 8294,
      "Ġablation": 8295,
      "##ribution": 8296,
      "Ġopened": 8297,
      "Ġinsert": 8298,
      "Ġworking": 8299,
      "Ġhumans": 8300,
      "Ġadvances": 8301,
      "##chnoid": 8302,
      "Ġinfective": 8303,
      "Ġtechnology": 8304,
      "Ġintravenous": 8305,
      "Ġueber": 8306,
      "Ġrheum": 8307,
      "Ġfeeble": 8308,
      "fur": 8309,
      "high": 8310,
      "knee": 8311,
      "post": 8312,
      "Ġpil": 8313,
      "Ġrend": 8314,
      "Ġgall": 8315,
      "Ġdefic": 8316,
      "##uda": 8317,
      "off": 8318,
      "##ardt": 8319,
      "Ġgenerate": 8320,
      "struct": 8321,
      "another": 8322,
      "Ġinsight": 8323,
      "Ġcontinues": 8324,
      "Ġreveals": 8325,
      "Ġpapers": 8326,
      "Ġfifteen": 8327,
      "Ġdentate": 8328,
      "study": 8329,
      "Ġcateg": 8330,
      "Ġfab": 8331,
      "Ġnurs": 8332,
      "##usive": 8333,
      "##iden": 8334,
      "Ġconception": 8335,
      "##ado": 8336,
      "##ublished": 8337,
      "Ġvaric": 8338,
      "Ġ1919": 8339,
      "Ġdetection": 8340,
      "1984": 8341,
      "Ġnecessity": 8342,
      "therefore": 8343,
      "Ġinnervated": 8344,
      "Ġchest": 8345,
      "Ġvesicles": 8346,
      "Ġlatent": 8347,
      "journal": 8348,
      "Ġdeformity": 8349,
      "96": 8350,
      "line": 8351,
      "sep": 8352,
      "##ophil": 8353,
      "##pic": 8354,
      "##rat": 8355,
      "##niscus": 8356,
      "Ġdram": 8357,
      "Ġgrain": 8358,
      "Ġconvex": 8359,
      "Ġku": 8360,
      "##ologists": 8361,
      "Ġinterference": 8362,
      "Ġsubun": 8363,
      "Ġenable": 8364,
      "105": 8365,
      "Ġpotassium": 8366,
      "##racher": 8367,
      "disturb": 8368,
      "Ġresembling": 8369,
      "Ġfundus": 8370,
      "Ġphysicians": 8371,
      "Ġrubrospinal": 8372,
      "Ġmucous": 8373,
      "bran": 8374,
      "depend": 8375,
      "Ġcured": 8376,
      "Ġstable": 8377,
      "##oden": 8378,
      "Ġspot": 8379,
      "Ġphases": 8380,
      "Ġclon": 8381,
      "Ġsignalling": 8382,
      "Ġ119": 8383,
      "Ġspeed": 8384,
      "##ivalent": 8385,
      "##ographic": 8386,
      "Ġberlin": 8387,
      "Ġmeaning": 8388,
      "Ġcriter": 8389,
      "Ġvector": 8390,
      "Ġischemia": 8391,
      "Ġsimultaneously": 8392,
      "coll": 8393,
      "ha": 8394,
      "tra": 8395,
      "##hips": 8396,
      "##for": 8397,
      "Ġsar": 8398,
      "Ġdb": 8399,
      "##aria": 8400,
      "Ġren": 8401,
      "Ġaneur": 8402,
      "Ġstar": 8403,
      "Ġparad": 8404,
      "##akes": 8405,
      "Ġplastic": 8406,
      "Ġdegenerate": 8407,
      "except": 8408,
      "Ġrefraction": 8409,
      "Ġprovides": 8410,
      "Ġinfections": 8411,
      "Ġoxide": 8412,
      "Ġcolleagues": 8413,
      "Ġblocks": 8414,
      "Ġamplitude": 8415,
      "Ġsphincter": 8416,
      "Ġbiomaterials": 8417,
      "Ġelectrophys": 8418,
      "mo": 8419,
      "rt": 8420,
      "Ġia": 8421,
      "##fa": 8422,
      "Ġdrain": 8423,
      "##stor": 8424,
      "Ġmann": 8425,
      "Ġefficiency": 8426,
      "Ġthank": 8427,
      "Ġ124": 8428,
      "110": 8429,
      "Ġpromoter": 8430,
      "121": 8431,
      "##helium": 8432,
      "Ġskelet": 8433,
      "arm": 8434,
      "medical": 8435,
      "Ġï¬ģbers": 8436,
      "Ġstewart": 8437,
      "Ġascertain": 8438,
      "##ypical": 8439,
      "##accid": 8440,
      "##illaries": 8441,
      "Ġreinnervation": 8442,
      "py": 8443,
      "Ġpac": 8444,
      "Ġeuro": 8445,
      "Ġgdnf": 8446,
      "Ġken": 8447,
      "Ġconstruct": 8448,
      "##queous": 8449,
      "Ġmats": 8450,
      "Ġproviding": 8451,
      "Ġquantified": 8452,
      "Ġconvol": 8453,
      "Ġdavies": 8454,
      "Ġrichard": 8455,
      "Ġcircuits": 8456,
      "Ġgelatin": 8457,
      "Ġwilson": 8458,
      "jerks": 8459,
      "Ġparaformal": 8460,
      "Ġcandid": 8461,
      "Ġinvariably": 8462,
      "##ee": 8463,
      "##cu": 8464,
      "##mis": 8465,
      "##zellen": 8466,
      "##92": 8467,
      "##inn": 8468,
      "##erracher": 8469,
      "Ġsand": 8470,
      "Ġmad": 8471,
      "##ibli": 8472,
      "##ortical": 8473,
      "##ordon": 8474,
      "âĢĺ": 8475,
      "Ġcompet": 8476,
      "Ġ107": 8477,
      "Ġmaximal": 8478,
      "Ġexplant": 8479,
      "Ġsaf": 8480,
      "Ġbackward": 8481,
      "Ġnorth": 8482,
      "##inophil": 8483,
      "Ġhorns": 8484,
      "distance": 8485,
      "irrit": 8486,
      "Ġtransported": 8487,
      "Ġevaluated": 8488,
      "Ġassistance": 8489,
      "considerable": 8490,
      "##ror": 8491,
      "Ġpoll": 8492,
      "##itrogen": 8493,
      "Ġfm": 8494,
      "##ications": 8495,
      "Ġhors": 8496,
      "##ilaterally": 8497,
      "Ġanx": 8498,
      "Ġzw": 8499,
      "Ġdiseased": 8500,
      "Ġliable": 8501,
      "expl": 8502,
      "conv": 8503,
      "within": 8504,
      "Ġmyopia": 8505,
      "Ġexcised": 8506,
      "Ġ1904": 8507,
      "Ġstronger": 8508,
      "Ġuncertain": 8509,
      "Ġstriatum": 8510,
      "occurs": 8511,
      "Ġneutroph": 8512,
      "Ġreproduction": 8513,
      "Ġissue": 8514,
      "Ġrecruitment": 8515,
      "77": 8516,
      "cadherin": 8517,
      "even": 8518,
      "ll": 8519,
      "rap": 8520,
      "unt": 8521,
      "##itating": 8522,
      "Ġwir": 8523,
      "Ġbud": 8524,
      "##stra": 8525,
      "Ġsta": 8526,
      "Ġstop": 8527,
      "Ġally": 8528,
      "Ġperception": 8529,
      "Ġeff": 8530,
      "Ġinstitution": 8531,
      "Ġvitamins": 8532,
      "##ofluores": 8533,
      "..âĢĶ": 8534,
      "##reshold": 8535,
      "Ġsummar": 8536,
      "Ġchannel": 8537,
      "similar": 8538,
      "Ġtaste": 8539,
      "Ġdynamics": 8540,
      "82": 8541,
      "br": 8542,
      "mind": 8543,
      "sil": 8544,
      "Ġpri": 8545,
      "Ġmik": 8546,
      "Ġbbb": 8547,
      "##oring": 8548,
      "Ġdeut": 8549,
      "Ġstabil": 8550,
      "##oding": 8551,
      "##earing": 8552,
      "Ġdorsalis": 8553,
      "Ġclinic": 8554,
      "Ġprotection": 8555,
      "Ġmetall": 8556,
      "fluid": 8557,
      "Ġcytoplasmic": 8558,
      "Ġquadrigem": 8559,
      "Ġleucocytes": 8560,
      "Ġentwickel": 8561,
      "Ġopportunity": 8562,
      "Ġstupor": 8563,
      "74": 8564,
      "dorsal": 8565,
      "flex": 8566,
      "iii": 8567,
      "la": 8568,
      "mer": 8569,
      "val": 8570,
      "##ss": 8571,
      "##chel": 8572,
      "##zer": 8573,
      "Ġtic": 8574,
      "##enen": 8575,
      "Ġpcr": 8576,
      "Ġinqu": 8577,
      "Ġdl": 8578,
      "Ġny": 8579,
      "##amy": 8580,
      "##amily": 8581,
      "Ġspots": 8582,
      "Ġchina": 8583,
      "Ġhearing": 8584,
      "Ġkne": 8585,
      "Ġpern": 8586,
      "##ensive": 8587,
      "Ġeffic": 8588,
      "white": 8589,
      "Ġdividing": 8590,
      "Ġ160": 8591,
      "Ġlouis": 8592,
      "##unctions": 8593,
      "Ġhrp": 8594,
      "various": 8595,
      "soluble": 8596,
      "Ġlewis": 8597,
      "count": 8598,
      "md": 8599,
      "near": 8600,
      "sul": 8601,
      "##light": 8602,
      "##zl": 8603,
      "Ġaqueous": 8604,
      "##inin": 8605,
      "Ġsarc": 8606,
      "Ġbin": 8607,
      "Ġhsp": 8608,
      "##raine": 8609,
      "##ilities": 8610,
      "##agic": 8611,
      "Ġresident": 8612,
      "Ġih": 8613,
      "Ġformal": 8614,
      "Ġmanic": 8615,
      "Ġ126": 8616,
      "Ġforebrain": 8617,
      "Ġconvin": 8618,
      "Ġexperimentally": 8619,
      "Ġdrawing": 8620,
      "Ġpigmented": 8621,
      "Ġgrounds": 8622,
      "Ġplatelet": 8623,
      "Ġoverexpression": 8624,
      "fc": 8625,
      "##eks": 8626,
      "##rgcs": 8627,
      "##ione": 8628,
      "Ġbis": 8629,
      "Ġdapi": 8630,
      "Ġgir": 8631,
      "Ġthing": 8632,
      "##sec": 8633,
      "Ġinterrupted": 8634,
      "Ġsubarachnoid": 8635,
      "##ishing": 8636,
      "Ġseconds": 8637,
      "Ġinterpre": 8638,
      "##odermal": 8639,
      "Ġdisappearance": 8640,
      "syphilis": 8641,
      "78": 8642,
      "find": 8643,
      "nature": 8644,
      "Ġrom": 8645,
      "##ez": 8646,
      "##¯ïĿ": 8647,
      "Ġcasc": 8648,
      "Ġpowers": 8649,
      "Ġfoss": 8650,
      "Ġlos": 8651,
      "##umann": 8652,
      "Ġjose": 8653,
      "Ġsev": 8654,
      "Ġsearch": 8655,
      "Ġchron": 8656,
      "##opod": 8657,
      "Ġtranslation": 8658,
      "Ġrepulsive": 8659,
      "Ġcompleted": 8660,
      "##entially": 8661,
      "Ġtubulin": 8662,
      "##eldom": 8663,
      "Ġdissection": 8664,
      "Ġintegration": 8665,
      "invol": 8666,
      "##cephalus": 8667,
      "Ġenzyme": 8668,
      "Ġadopted": 8669,
      "Ġaltogether": 8670,
      "myelin": 8671,
      "Ġdj": 8672,
      "##asy": 8673,
      "Ġgent": 8674,
      "##imet": 8675,
      "##utive": 8676,
      "##igor": 8677,
      "Ġjd": 8678,
      "Ġ1928": 8679,
      "Ġkra": 8680,
      "Ġroof": 8681,
      "Ġtween": 8682,
      "Ġxi": 8683,
      "Ġnucleated": 8684,
      "Ġdepr": 8685,
      "alcohol": 8686,
      "##apsed": 8687,
      "Ġdye": 8688,
      "Ġreleased": 8689,
      "Ġrounded": 8690,
      "Ġorbital": 8691,
      "examination": 8692,
      "Ġfrozen": 8693,
      "degree": 8694,
      "##98": 8695,
      "##96": 8696,
      "Ġinï¬Ĥ": 8697,
      "##oria": 8698,
      "Ġluc": 8699,
      "##urch": 8700,
      "Ġrons": 8701,
      "Ġ113": 8702,
      "Ġprompt": 8703,
      "Ġastigm": 8704,
      "Ġfewer": 8705,
      "short": 8706,
      "Ġconfusion": 8707,
      "Ġ1933": 8708,
      "Ġcorrespondence": 8709,
      "Ġfibrillary": 8710,
      "Ġtetanus": 8711,
      "Ġvertigo": 8712,
      "Ġseizures": 8713,
      "Ġplaques": 8714,
      "Ġexcretion": 8715,
      "Ġtherapies": 8716,
      "Ġtactile": 8717,
      "Ġlose": 8718,
      "##olateral": 8719,
      "Ġdevel": 8720,
      "Ġresection": 8721,
      "##ugg": 8722,
      "Ġexpres": 8723,
      "##pez": 8724,
      "Ġdeple": 8725,
      "Ġautom": 8726,
      "Ġ211": 8727,
      "Ġmetam": 8728,
      "Ġdemonstration": 8729,
      "##version": 8730,
      "##meyer": 8731,
      "Ġhindlimb": 8732,
      "Ġtransferred": 8733,
      "Ġremodeling": 8734,
      "86": 8735,
      "gu": 8736,
      "london": 8737,
      "mt": 8738,
      "##rna": 8739,
      "##cers": 8740,
      "##athe": 8741,
      "Ġcel": 8742,
      "Ġmere": 8743,
      "Ġmort": 8744,
      "Ġlation": 8745,
      "Ġhuber": 8746,
      "Ġtoms": 8747,
      "##rav": 8748,
      "##uments": 8749,
      "##adily": 8750,
      "##oret": 8751,
      "Ġapply": 8752,
      "Ġinterf": 8753,
      "Ġneuroses": 8754,
      "Ġiron": 8755,
      "Ġsolid": 8756,
      "Ġpurulent": 8757,
      "##onald": 8758,
      "Ġregulating": 8759,
      "Ġreviews": 8760,
      "##Ã¦cox": 8761,
      "Ġdesigned": 8762,
      "Ġsemaphorins": 8763,
      "Ġpharmacological": 8764,
      "Ġcopyright": 8765,
      "Ġbehaviour": 8766,
      "Ġcouncil": 8767,
      "92": 8768,
      "##ered": 8769,
      "Ġpier": 8770,
      "Ġinch": 8771,
      "Ġbrom": 8772,
      "Ġdull": 8773,
      "Ġchan": 8774,
      "Ġheight": 8775,
      "Ġperry": 8776,
      "##yself": 8777,
      "Ġpathologic": 8778,
      "Ġimmob": 8779,
      "Ġneurosis": 8780,
      "Ġvital": 8781,
      "Ġpostoper": 8782,
      "125": 8783,
      "occasion": 8784,
      "Ġtranscriptional": 8785,
      "Ġlacr": 8786,
      "##oon": 8787,
      "Ġtent": 8788,
      "Ġsagittal": 8789,
      "Ġcreat": 8790,
      "Ġpmid": 8791,
      "Ġthings": 8792,
      "##osan": 8793,
      "Ġconven": 8794,
      "Ġrans": 8795,
      "Ġinterruption": 8796,
      "Ġsensor": 8797,
      "Ġdegenera": 8798,
      "##fully": 8799,
      "Ġstratum": 8800,
      "Ġassemb": 8801,
      "Ġdivide": 8802,
      "Ġ131": 8803,
      "Ġinfluenced": 8804,
      "Ġ1931": 8805,
      "common": 8806,
      "Ġbullet": 8807,
      "Ġidi": 8808,
      "06": 8809,
      "62": 8810,
      "94": 8811,
      ":.": 8812,
      "dem": 8813,
      "dec": 8814,
      "##bury": 8815,
      "##kt": 8816,
      "Ġtm": 8817,
      "Ġcj": 8818,
      "Ġmist": 8819,
      "##aris": 8820,
      "Ġsteps": 8821,
      "Ġblast": 8822,
      "Ġcarl": 8823,
      "Ġpsychology": 8824,
      "2014": 8825,
      "Ġallowing": 8826,
      "Ġillustrations": 8827,
      "Ġpedf": 8828,
      "Ġpreceded": 8829,
      "Ġexcitability": 8830,
      "Ġconclude": 8831,
      "Ġmicrotubules": 8832,
      "Ġpeduncle": 8833,
      "Ġorientation": 8834,
      "Ġimmunostaining": 8835,
      "Ġalveolar": 8836,
      "mortem": 8837,
      "##ait": 8838,
      "##gal": 8839,
      "Ġsind": 8840,
      "Ġcow": 8841,
      "Ġpull": 8842,
      "Ġbms": 8843,
      "Ġdop": 8844,
      "Ġthread": 8845,
      "Ġvidal": 8846,
      "Ġdealing": 8847,
      "##eme": 8848,
      "Ġjap": 8849,
      "##aine": 8850,
      "##tebr": 8851,
      "##ismus": 8852,
      "Ġtrit": 8853,
      "##rench": 8854,
      "Ġ135": 8855,
      "Ġconditioned": 8856,
      "Ġprogression": 8857,
      "Ġdownstream": 8858,
      "Ġillness": 8859,
      "Ġfatigue": 8860,
      "Ġviral": 8861,
      "Ġcavities": 8862,
      "forms": 8863,
      "Ġbegun": 8864,
      "Ġoptical": 8865,
      "Ġconnex": 8866,
      "negative": 8867,
      ".'": 8868,
      "lower": 8869,
      "##oic": 8870,
      "##uer": 8871,
      "Ġtonic": 8872,
      "##rehens": 8873,
      "##iten": 8874,
      "Ġwpi": 8875,
      "Ġchord": 8876,
      "Ġcomplications": 8877,
      "Ġapplications": 8878,
      "Ġsubt": 8879,
      "##rium": 8880,
      "Ġammon": 8881,
      "Ġparoxys": 8882,
      "Ġedition": 8883,
      "seem": 8884,
      "Ġcapillary": 8885,
      "Ġ1934": 8886,
      "Ġdiffers": 8887,
      "Ġintegrity": 8888,
      "series": 8889,
      "Ġexudate": 8890,
      "id": 8891,
      "##rison": 8892,
      "Ġtad": 8893,
      "Ġbj": 8894,
      "Ġhl": 8895,
      "Ġadherent": 8896,
      "Ġtransm": 8897,
      "Ġevoked": 8898,
      "Ġ137": 8899,
      "Ġmorning": 8900,
      "Ġcorrection": 8901,
      "Ġpolyneuritis": 8902,
      "Ġchildhood": 8903,
      "Ġtoxins": 8904,
      "##................................................................": 8905,
      "frequently": 8906,
      "Ġorthop": 8907,
      "Ġminimum": 8908,
      "Ġrecombinant": 8909,
      "fif": 8910,
      "##then": 8911,
      "##ground": 8912,
      "Ġci": 8913,
      "Ġgordon": 8914,
      "Ġneuroepit": 8915,
      "Ġphth": 8916,
      "Ġdistant": 8917,
      "Ġsche": 8918,
      "##iley": 8919,
      "Ġfeeding": 8920,
      "Ġsuppression": 8921,
      "Ġvarieties": 8922,
      "Ġ127": 8923,
      "Ġpromising": 8924,
      "Ġastroglial": 8925,
      "115": 8926,
      "Ġnonper": 8927,
      "Ġdifficulties": 8928,
      "Ġmotility": 8929,
      "Ġsegmental": 8930,
      "Ġdisplay": 8931,
      "graft": 8932,
      "Ġlemniscus": 8933,
      "Ġ***": 8934,
      "Ġthiamin": 8935,
      "Ġoblique": 8936,
      "Ġabdomen": 8937,
      "just": 8938,
      "Ġsav": 8939,
      "Ġstern": 8940,
      "##atio": 8941,
      "Ġded": 8942,
      "Ġlated": 8943,
      "##uscular": 8944,
      "Ġgest": 8945,
      "Ġconce": 8946,
      "Ġchair": 8947,
      "Ġkat": 8948,
      "Ġquality": 8949,
      "Ġrelieved": 8950,
      "##ustom": 8951,
      "Ġspeaking": 8952,
      "Ġ170": 8953,
      "##oplasmic": 8954,
      "Ġstatistics": 8955,
      "Ġneuroma": 8956,
      "Ġophthalmology": 8957,
      "Ġrecognised": 8958,
      "above": 8959,
      "Ġoxford": 8960,
      "Ġtrigger": 8961,
      "##bridge": 8962,
      "Ġaugen": 8963,
      "Ġelectrode": 8964,
      "Ġconcussion": 8965,
      "Ġassistant": 8966,
      "Ġconsequences": 8967,
      "Ġneuroprotection": 8968,
      "Ġefforts": 8969,
      "Ġspindle": 8970,
      "72": 8971,
      "Ġted": 8972,
      "##iti": 8973,
      "Ġeyel": 8974,
      "##ifi": 8975,
      "Ġramon": 8976,
      "Ġsomething": 8977,
      "Ġacta": 8978,
      "Ġzones": 8979,
      "Ġmononuclear": 8980,
      "Ġ122": 8981,
      "Ġ240": 8982,
      "Ġhypo": 8983,
      "Ġsway": 8984,
      "Ġcapillaries": 8985,
      "Ġbelieves": 8986,
      "extrem": 8987,
      "Ġcrym": 8988,
      "Ġlentiv": 8989,
      "Ġexcluded": 8990,
      "Ġdiplopia": 8991,
[...]
